{
  "version": "1.0",
  "truncation": null,
  "padding": null,
  "added_tokens": [
    {
      "id": 0,
      "content": "[PAD]",
      "single_word": false,
      "lstrip": false,
      "rstrip": false,
      "normalized": false,
      "special": true
    },
    {
      "id": 1,
      "content": "[UNK]",
      "single_word": false,
      "lstrip": false,
      "rstrip": false,
      "normalized": false,
      "special": true
    },
    {
      "id": 2,
      "content": "[CLS]",
      "single_word": false,
      "lstrip": false,
      "rstrip": false,
      "normalized": false,
      "special": true
    },
    {
      "id": 3,
      "content": "[SEP]",
      "single_word": false,
      "lstrip": false,
      "rstrip": false,
      "normalized": false,
      "special": true
    },
    {
      "id": 4,
      "content": "[MASK]",
      "single_word": false,
      "lstrip": false,
      "rstrip": false,
      "normalized": false,
      "special": true
    }
  ],
  "normalizer": null,
  "pre_tokenizer": null,
  "post_processor": null,
  "decoder": null,
  "model": {
    "type": "BPE",
    "dropout": null,
    "unk_token": "[UNK]",
    "continuing_subword_prefix": null,
    "end_of_word_suffix": null,
    "fuse_unk": false,
    "byte_fallback": false,
    "ignore_merges": false,
    "vocab": {
      "[PAD]": 0,
      "[UNK]": 1,
      "[CLS]": 2,
      "[SEP]": 3,
      "[MASK]": 4,
      " ": 5,
      "!": 6,
      "\"": 7,
      "#": 8,
      "$": 9,
      "%": 10,
      "&": 11,
      "'": 12,
      "(": 13,
      ")": 14,
      "*": 15,
      "+": 16,
      ",": 17,
      "-": 18,
      ".": 19,
      "/": 20,
      "0": 21,
      "1": 22,
      "2": 23,
      "3": 24,
      "4": 25,
      "5": 26,
      "6": 27,
      "7": 28,
      "8": 29,
      "9": 30,
      ":": 31,
      ";": 32,
      "<": 33,
      "=": 34,
      ">": 35,
      "?": 36,
      "@": 37,
      "A": 38,
      "B": 39,
      "C": 40,
      "D": 41,
      "E": 42,
      "F": 43,
      "G": 44,
      "H": 45,
      "I": 46,
      "J": 47,
      "K": 48,
      "L": 49,
      "M": 50,
      "N": 51,
      "O": 52,
      "P": 53,
      "Q": 54,
      "R": 55,
      "S": 56,
      "T": 57,
      "U": 58,
      "V": 59,
      "W": 60,
      "X": 61,
      "Y": 62,
      "Z": 63,
      "[": 64,
      "\\": 65,
      "]": 66,
      "^": 67,
      "_": 68,
      "`": 69,
      "a": 70,
      "b": 71,
      "c": 72,
      "d": 73,
      "e": 74,
      "f": 75,
      "g": 76,
      "h": 77,
      "i": 78,
      "j": 79,
      "k": 80,
      "l": 81,
      "m": 82,
      "n": 83,
      "o": 84,
      "p": 85,
      "q": 86,
      "r": 87,
      "s": 88,
      "t": 89,
      "u": 90,
      "v": 91,
      "w": 92,
      "x": 93,
      "y": 94,
      "z": 95,
      "{": 96,
      "|": 97,
      "}": 98,
      "~": 99,
      "": 100,
      " ": 101,
      "¡": 102,
      "§": 103,
      "¨": 104,
      "«": 105,
      "¬": 106,
      "­": 107,
      "°": 108,
      "±": 109,
      "´": 110,
      "µ": 111,
      "¶": 112,
      "·": 113,
      "¸": 114,
      "º": 115,
      "»": 116,
      "¿": 117,
      "À": 118,
      "Á": 119,
      "Â": 120,
      "Ã": 121,
      "Ä": 122,
      "Å": 123,
      "Ç": 124,
      "È": 125,
      "É": 126,
      "Ê": 127,
      "Ë": 128,
      "Ì": 129,
      "Í": 130,
      "Î": 131,
      "Ñ": 132,
      "Ò": 133,
      "Ó": 134,
      "Ö": 135,
      "×": 136,
      "Ü": 137,
      "à": 138,
      "á": 139,
      "â": 140,
      "ã": 141,
      "ä": 142,
      "å": 143,
      "ç": 144,
      "è": 145,
      "é": 146,
      "ê": 147,
      "ë": 148,
      "ì": 149,
      "í": 150,
      "î": 151,
      "ï": 152,
      "ð": 153,
      "ñ": 154,
      "ò": 155,
      "ó": 156,
      "ô": 157,
      "õ": 158,
      "ö": 159,
      "ø": 160,
      "ù": 161,
      "ú": 162,
      "û": 163,
      "ü": 164,
      "ǒ": 165,
      "ʼ": 166,
      "ˉ": 167,
      "˙": 168,
      "Δ": 169,
      "Σ": 170,
      "Φ": 171,
      "Χ": 172,
      "Ψ": 173,
      "Ω": 174,
      "α": 175,
      "β": 176,
      "γ": 177,
      "δ": 178,
      "ε": 179,
      "ζ": 180,
      "η": 181,
      "θ": 182,
      "κ": 183,
      "λ": 184,
      "μ": 185,
      "ν": 186,
      "ο": 187,
      "π": 188,
      "ρ": 189,
      "σ": 190,
      "τ": 191,
      "υ": 192,
      "φ": 193,
      "χ": 194,
      "ψ": 195,
      "ω": 196,
      " ": 197,
      " ": 198,
      " ": 199,
      " ": 200,
      " ": 201,
      "​": 202,
      "‐": 203,
      "–": 204,
      "—": 205,
      "―": 206,
      "‖": 207,
      "‘": 208,
      "’": 209,
      "‚": 210,
      "“": 211,
      "”": 212,
      "„": 213,
      "‟": 214,
      "•": 215,
      "…": 216,
      "‧": 217,
      "‰": 218,
      "′": 219,
      "″": 220,
      "›": 221,
      "※": 222,
      "⁄": 223,
      "€": 224,
      "℃": 225,
      "℅": 226,
      "℉": 227,
      "™": 228,
      "ℵ": 229,
      "Ⅰ": 230,
      "Ⅱ": 231,
      "Ⅲ": 232,
      "Ⅳ": 233,
      "Ⅴ": 234,
      "Ⅵ": 235,
      "Ⅷ": 236,
      "→": 237,
      "∂": 238,
      "∑": 239,
      "−": 240,
      "∕": 241,
      "∙": 242,
      "√": 243,
      "∞": 244,
      "∫": 245,
      "∶": 246,
      "∷": 247,
      "∼": 248,
      "≈": 249,
      "≡": 250,
      "≤": 251,
      "≥": 252,
      "≪": 253,
      "≫": 254,
      "⊕": 255,
      "⊙": 256,
      "⋯": 257,
      "①": 258,
      "②": 259,
      "③": 260,
      "④": 261,
      "⑤": 262,
      "⑥": 263,
      "⑦": 264,
      "⑧": 265,
      "⑨": 266,
      "⑩": 267,
      "⑴": 268,
      "⑵": 269,
      "⑶": 270,
      "⑷": 271,
      "⑸": 272,
      "⑹": 273,
      "⑺": 274,
      "⑻": 275,
      "⑼": 276,
      "⑾": 277,
      "⑿": 278,
      "⒁": 279,
      "⒉": 280,
      "⒊": 281,
      "⒋": 282,
      "⒍": 283,
      "⒔": 284,
      "⒕": 285,
      "⒖": 286,
      "─": 287,
      "╱": 288,
      "■": 289,
      "□": 290,
      "▪": 291,
      "▲": 292,
      "△": 293,
      "►": 294,
      "▽": 295,
      "◆": 296,
      "◇": 297,
      "○": 298,
      "◎": 299,
      "●": 300,
      "◐": 301,
      "★": 302,
      "☆": 303,
      "☞": 304,
      "♀": 305,
      "♂": 306,
      "♠": 307,
      "♥": 308,
      "♪": 309,
      "♫": 310,
      "⨥": 311,
      "⨰": 312,
      "Ⲹ": 313,
      "ⷉ": 314,
      "⸳": 315,
      "⸴": 316,
      "　": 317,
      "、": 318,
      "。": 319,
      "〇": 320,
      "〈": 321,
      "〉": 322,
      "《": 323,
      "》": 324,
      "「": 325,
      "」": 326,
      "『": 327,
      "』": 328,
      "【": 329,
      "】": 330,
      "〔": 331,
      "〕": 332,
      "〖": 333,
      "〗": 334,
      "〜": 335,
      "〝": 336,
      "〞": 337,
      "〰": 338,
      "・": 339,
      "㐋": 340,
      "㐤": 341,
      "㘯": 342,
      "㛸": 343,
      "㠦": 344,
      "㣈": 345,
      "㤐": 346,
      "㤸": 347,
      "㥌": 348,
      "㥞": 349,
      "㦢": 350,
      "㦨": 351,
      "㦱": 352,
      "㧑": 353,
      "㭎": 354,
      "㭰": 355,
      "㮆": 356,
      "㴏": 357,
      "㶲": 358,
      "㺼": 359,
      "䁖": 360,
      "䅊": 361,
      "䅒": 362,
      "䅠": 363,
      "䆛": 364,
      "䈢": 365,
      "䈰": 366,
      "䋡": 367,
      "䌀": 368,
      "䌐": 369,
      "䌷": 370,
      "䗸": 371,
      "䜰": 372,
      "䞀": 373,
      "䢰": 374,
      "䧏": 375,
      "䪐": 376,
      "䲟": 377,
      "䲸": 378,
      "䴘": 379,
      "䴙": 380,
      "䴜": 381,
      "䵂": 382,
      "䵑": 383,
      "䶝": 384,
      "一": 385,
      "丁": 386,
      "七": 387,
      "丄": 388,
      "丅": 389,
      "丆": 390,
      "万": 391,
      "丈": 392,
      "三": 393,
      "上": 394,
      "下": 395,
      "丌": 396,
      "不": 397,
      "与": 398,
      "丏": 399,
      "丐": 400,
      "丑": 401,
      "专": 402,
      "且": 403,
      "丕": 404,
      "世": 405,
      "丗": 406,
      "丘": 407,
      "丙": 408,
      "业": 409,
      "丛": 410,
      "东": 411,
      "丝": 412,
      "丞": 413,
      "両": 414,
      "丢": 415,
      "两": 416,
      "严": 417,
      "丧": 418,
      "丨": 419,
      "个": 420,
      "丫": 421,
      "中": 422,
      "丰": 423,
      "串": 424,
      "临": 425,
      "丶": 426,
      "丸": 427,
      "丹": 428,
      "为": 429,
      "主": 430,
      "丽": 431,
      "举": 432,
      "丿": 433,
      "乂": 434,
      "乃": 435,
      "久": 436,
      "乆": 437,
      "乇": 438,
      "么": 439,
      "义": 440,
      "之": 441,
      "乌": 442,
      "乍": 443,
      "乎": 444,
      "乏": 445,
      "乐": 446,
      "乒": 447,
      "乓": 448,
      "乔": 449,
      "乖": 450,
      "乘": 451,
      "乙": 452,
      "乛": 453,
      "乜": 454,
      "九": 455,
      "乞": 456,
      "也": 457,
      "习": 458,
      "乡": 459,
      "书": 460,
      "乩": 461,
      "买": 462,
      "乱": 463,
      "乳": 464,
      "乸": 465,
      "乾": 466,
      "了": 467,
      "亇": 468,
      "予": 469,
      "争": 470,
      "亊": 471,
      "事": 472,
      "二": 473,
      "于": 474,
      "亏": 475,
      "亐": 476,
      "云": 477,
      "互": 478,
      "亓": 479,
      "五": 480,
      "井": 481,
      "亘": 482,
      "亚": 483,
      "些": 484,
      "亜": 485,
      "亟": 486,
      "亡": 487,
      "亢": 488,
      "交": 489,
      "亥": 490,
      "亦": 491,
      "产": 492,
      "亨": 493,
      "亩": 494,
      "享": 495,
      "京": 496,
      "亭": 497,
      "亮": 498,
      "亲": 499,
      "亳": 500,
      "亵": 501,
      "人": 502,
      "亻": 503,
      "亼": 504,
      "亽": 505,
      "亾": 506,
      "亿": 507,
      "什": 508,
      "仁": 509,
      "仃": 510,
      "仄": 511,
      "仅": 512,
      "仆": 513,
      "仇": 514,
      "仉": 515,
      "今": 516,
      "介": 517,
      "仌": 518,
      "仍": 519,
      "从": 520,
      "仐": 521,
      "仑": 522,
      "仓": 523,
      "仔": 524,
      "仕": 525,
      "他": 526,
      "仗": 527,
      "付": 528,
      "仙": 529,
      "仝": 530,
      "仞": 531,
      "仟": 532,
      "仠": 533,
      "仡": 534,
      "代": 535,
      "令": 536,
      "以": 537,
      "仧": 538,
      "仨": 539,
      "仩": 540,
      "仪": 541,
      "仫": 542,
      "们": 543,
      "仰": 544,
      "仱": 545,
      "仲": 546,
      "仳": 547,
      "件": 548,
      "价": 549,
      "仸": 550,
      "任": 551,
      "仼": 552,
      "份": 553,
      "仿": 554,
      "企": 555,
      "伉": 556,
      "伊": 557,
      "伋": 558,
      "伍": 559,
      "伎": 560,
      "伏": 561,
      "伐": 562,
      "休": 563,
      "众": 564,
      "优": 565,
      "伙": 566,
      "会": 567,
      "伛": 568,
      "伝": 569,
      "伞": 570,
      "伟": 571,
      "传": 572,
      "伢": 573,
      "伤": 574,
      "伥": 575,
      "伦": 576,
      "伧": 577,
      "伪": 578,
      "伫": 579,
      "伯": 580,
      "估": 581,
      "伱": 582,
      "伴": 583,
      "伶": 584,
      "伸": 585,
      "伹": 586,
      "伺": 587,
      "似": 588,
      "伽": 589,
      "佀": 590,
      "佁": 591,
      "佃": 592,
      "但": 593,
      "佉": 594,
      "位": 595,
      "低": 596,
      "住": 597,
      "佐": 598,
      "佑": 599,
      "体": 600,
      "佔": 601,
      "何": 602,
      "佗": 603,
      "佘": 604,
      "余": 605,
      "佚": 606,
      "佛": 607,
      "作": 608,
      "佝": 609,
      "佞": 610,
      "佟": 611,
      "你": 612,
      "佢": 613,
      "佣": 614,
      "佤": 615,
      "佥": 616,
      "佧": 617,
      "佩": 618,
      "佬": 619,
      "佭": 620,
      "佮": 621,
      "佯": 622,
      "佰": 623,
      "佲": 624,
      "佳": 625,
      "佶": 626,
      "佷": 627,
      "佺": 628,
      "佻": 629,
      "佼": 630,
      "佽": 631,
      "使": 632,
      "侃": 633,
      "侄": 634,
      "侅": 635,
      "侈": 636,
      "例": 637,
      "侍": 638,
      "侏": 639,
      "侑": 640,
      "侓": 641,
      "侗": 642,
      "侘": 643,
      "侙": 644,
      "供": 645,
      "依": 646,
      "侞": 647,
      "侠": 648,
      "侣": 649,
      "侥": 650,
      "侦": 651,
      "侧": 652,
      "侨": 653,
      "侩": 654,
      "侪": 655,
      "侬": 656,
      "侭": 657,
      "侮": 658,
      "侯": 659,
      "侵": 660,
      "侹": 661,
      "便": 662,
      "促": 663,
      "俄": 664,
      "俅": 665,
      "俊": 666,
      "俍": 667,
      "俎": 668,
      "俏": 669,
      "俐": 670,
      "俑": 671,
      "俓": 672,
      "俗": 673,
      "俘": 674,
      "俚": 675,
      "保": 676,
      "俞": 677,
      "俟": 678,
      "信": 679,
      "俣": 680,
      "俤": 681,
      "俦": 682,
      "俨": 683,
      "俩": 684,
      "俪": 685,
      "俫": 686,
      "俬": 687,
      "俭": 688,
      "修": 689,
      "俯": 690,
      "俰": 691,
      "俱": 692,
      "俳": 693,
      "俶": 694,
      "俸": 695,
      "俺": 696,
      "俻": 697,
      "俾": 698,
      "倁": 699,
      "倌": 700,
      "倍": 701,
      "倏": 702,
      "倒": 703,
      "倓": 704,
      "倔": 705,
      "倕": 706,
      "倘": 707,
      "候": 708,
      "倚": 709,
      "倜": 710,
      "倞": 711,
      "借": 712,
      "倡": 713,
      "倢": 714,
      "値": 715,
      "倥": 716,
      "倦": 717,
      "倨": 718,
      "倩": 719,
      "倪": 720,
      "倬": 721,
      "倭": 722,
      "倮": 723,
      "债": 724,
      "值": 725,
      "倾": 726,
      "偂": 727,
      "偃": 728,
      "偆": 729,
      "假": 730,
      "偈": 731,
      "偌": 732,
      "偎": 733,
      "偏": 734,
      "偕": 735,
      "偖": 736,
      "做": 737,
      "停": 738,
      "健": 739,
      "偬": 740,
      "偲": 741,
      "偶": 742,
      "偷": 743,
      "偸": 744,
      "偹": 745,
      "偻": 746,
      "偿": 747,
      "傀": 748,
      "傅": 749,
      "傈": 750,
      "傍": 751,
      "傢": 752,
      "傣": 753,
      "傥": 754,
      "傧": 755,
      "储": 756,
      "傩": 757,
      "傪": 758,
      "催": 759,
      "傱": 760,
      "傲": 761,
      "傹": 762,
      "傺": 763,
      "傻": 764,
      "像": 765,
      "僖": 766,
      "僚": 767,
      "僟": 768,
      "僤": 769,
      "僦": 770,
      "僧": 771,
      "僭": 772,
      "僮": 773,
      "僰": 774,
      "僳": 775,
      "僵": 776,
      "僸": 777,
      "僻": 778,
      "儅": 779,
      "儆": 780,
      "儋": 781,
      "儌": 782,
      "儍": 783,
      "儒": 784,
      "儙": 785,
      "儚": 786,
      "儡": 787,
      "儰": 788,
      "儸": 789,
      "儿": 790,
      "兀": 791,
      "允": 792,
      "兂": 793,
      "元": 794,
      "兄": 795,
      "充": 796,
      "兆": 797,
      "先": 798,
      "光": 799,
      "克": 800,
      "免": 801,
      "児": 802,
      "兑": 803,
      "兔": 804,
      "兖": 805,
      "兙": 806,
      "党": 807,
      "兜": 808,
      "兟": 809,
      "兢": 810,
      "入": 811,
      "全": 812,
      "八": 813,
      "公": 814,
      "六": 815,
      "兮": 816,
      "兯": 817,
      "兰": 818,
      "共": 819,
      "兲": 820,
      "关": 821,
      "兴": 822,
      "兵": 823,
      "其": 824,
      "具": 825,
      "典": 826,
      "兹": 827,
      "养": 828,
      "兼": 829,
      "兽": 830,
      "兿": 831,
      "冀": 832,
      "内": 833,
      "円": 834,
      "冇": 835,
      "冈": 836,
      "冉": 837,
      "册": 838,
      "再": 839,
      "冒": 840,
      "冕": 841,
      "冖": 842,
      "冗": 843,
      "写": 844,
      "军": 845,
      "农": 846,
      "冠": 847,
      "冢": 848,
      "冤": 849,
      "冥": 850,
      "冨": 851,
      "冬": 852,
      "冭": 853,
      "冯": 854,
      "冰": 855,
      "冱": 856,
      "冲": 857,
      "决": 858,
      "况": 859,
      "冶": 860,
      "冷": 861,
      "冸": 862,
      "冻": 863,
      "冼": 864,
      "冽": 865,
      "净": 866,
      "凃": 867,
      "凄": 868,
      "准": 869,
      "凇": 870,
      "凉": 871,
      "凊": 872,
      "凋": 873,
      "凌": 874,
      "减": 875,
      "凑": 876,
      "凖": 877,
      "凛": 878,
      "凝": 879,
      "几": 880,
      "凡": 881,
      "凣": 882,
      "凤": 883,
      "処": 884,
      "凪": 885,
      "凫": 886,
      "凭": 887,
      "凯": 888,
      "凰": 889,
      "凳": 890,
      "凴": 891,
      "凵": 892,
      "凶": 893,
      "凸": 894,
      "凹": 895,
      "出": 896,
      "击": 897,
      "凼": 898,
      "函": 899,
      "凿": 900,
      "刀": 901,
      "刁": 902,
      "刂": 903,
      "刃": 904,
      "分": 905,
      "切": 906,
      "刈": 907,
      "刊": 908,
      "刍": 909,
      "刎": 910,
      "刑": 911,
      "划": 912,
      "刓": 913,
      "刖": 914,
      "列": 915,
      "刘": 916,
      "则": 917,
      "刚": 918,
      "创": 919,
      "初": 920,
      "删": 921,
      "判": 922,
      "刨": 923,
      "利": 924,
      "别": 925,
      "刮": 926,
      "到": 927,
      "刳": 928,
      "制": 929,
      "刷": 930,
      "券": 931,
      "刹": 932,
      "刺": 933,
      "刻": 934,
      "刽": 935,
      "刿": 936,
      "剀": 937,
      "剁": 938,
      "剂": 939,
      "剃": 940,
      "削": 941,
      "剋": 942,
      "剌": 943,
      "前": 944,
      "剐": 945,
      "剑": 946,
      "剒": 947,
      "剔": 948,
      "剖": 949,
      "剘": 950,
      "剜": 951,
      "剞": 952,
      "剡": 953,
      "剤": 954,
      "剥": 955,
      "剧": 956,
      "剩": 957,
      "剪": 958,
      "副": 959,
      "剰": 960,
      "割": 961,
      "剽": 962,
      "剿": 963,
      "劂": 964,
      "劄": 965,
      "劈": 966,
      "劐": 967,
      "力": 968,
      "劝": 969,
      "办": 970,
      "功": 971,
      "加": 972,
      "务": 973,
      "劢": 974,
      "劣": 975,
      "劥": 976,
      "动": 977,
      "助": 978,
      "努": 979,
      "劫": 980,
      "劬": 981,
      "劭": 982,
      "励": 983,
      "劲": 984,
      "劳": 985,
      "劵": 986,
      "効": 987,
      "劻": 988,
      "劼": 989,
      "劾": 990,
      "势": 991,
      "勃": 992,
      "勇": 993,
      "勉": 994,
      "勋": 995,
      "勐": 996,
      "勒": 997,
      "勔": 998,
      "勖": 999,
      "勗": 1000,
      "勘": 1001,
      "募": 1002,
      "勤": 1003,
      "勰": 1004,
      "勷": 1005,
      "勺": 1006,
      "勼": 1007,
      "勾": 1008,
      "勿": 1009,
      "匀": 1010,
      "包": 1011,
      "匆": 1012,
      "匈": 1013,
      "匍": 1014,
      "匏": 1015,
      "匐": 1016,
      "匕": 1017,
      "化": 1018,
      "北": 1019,
      "匙": 1020,
      "匚": 1021,
      "匝": 1022,
      "匠": 1023,
      "匡": 1024,
      "匣": 1025,
      "匪": 1026,
      "匮": 1027,
      "匹": 1028,
      "区": 1029,
      "医": 1030,
      "匼": 1031,
      "匾": 1032,
      "匿": 1033,
      "十": 1034,
      "千": 1035,
      "卅": 1036,
      "升": 1037,
      "午": 1038,
      "卉": 1039,
      "半": 1040,
      "卍": 1041,
      "华": 1042,
      "协": 1043,
      "卐": 1044,
      "卑": 1045,
      "卒": 1046,
      "卓": 1047,
      "单": 1048,
      "卖": 1049,
      "南": 1050,
      "単": 1051,
      "博": 1052,
      "卜": 1053,
      "卝": 1054,
      "卞": 1055,
      "卟": 1056,
      "占": 1057,
      "卡": 1058,
      "卢": 1059,
      "卤": 1060,
      "卦": 1061,
      "卧": 1062,
      "卫": 1063,
      "卮": 1064,
      "卯": 1065,
      "印": 1066,
      "危": 1067,
      "即": 1068,
      "却": 1069,
      "卵": 1070,
      "卷": 1071,
      "卸": 1072,
      "卽": 1073,
      "卿": 1074,
      "厂": 1075,
      "厄": 1076,
      "厅": 1077,
      "历": 1078,
      "厈": 1079,
      "厉": 1080,
      "压": 1081,
      "厌": 1082,
      "厍": 1083,
      "厎": 1084,
      "厓": 1085,
      "厕": 1086,
      "厘": 1087,
      "厚": 1088,
      "厝": 1089,
      "原": 1090,
      "厢": 1091,
      "厥": 1092,
      "厦": 1093,
      "厨": 1094,
      "厩": 1095,
      "厮": 1096,
      "厷": 1097,
      "去": 1098,
      "厼": 1099,
      "县": 1100,
      "叀": 1101,
      "叁": 1102,
      "参": 1103,
      "又": 1104,
      "叉": 1105,
      "及": 1106,
      "友": 1107,
      "双": 1108,
      "反": 1109,
      "収": 1110,
      "发": 1111,
      "叔": 1112,
      "取": 1113,
      "受": 1114,
      "变": 1115,
      "叙": 1116,
      "叛": 1117,
      "叟": 1118,
      "叠": 1119,
      "叡": 1120,
      "口": 1121,
      "古": 1122,
      "句": 1123,
      "另": 1124,
      "叧": 1125,
      "叨": 1126,
      "叩": 1127,
      "只": 1128,
      "叫": 1129,
      "召": 1130,
      "叭": 1131,
      "叮": 1132,
      "可": 1133,
      "台": 1134,
      "叱": 1135,
      "史": 1136,
      "右": 1137,
      "叵": 1138,
      "叶": 1139,
      "号": 1140,
      "司": 1141,
      "叹": 1142,
      "叻": 1143,
      "叼": 1144,
      "叽": 1145,
      "吀": 1146,
      "吁": 1147,
      "吃": 1148,
      "各": 1149,
      "吆": 1150,
      "合": 1151,
      "吉": 1152,
      "吊": 1153,
      "吋": 1154,
      "同": 1155,
      "名": 1156,
      "后": 1157,
      "吏": 1158,
      "吐": 1159,
      "向": 1160,
      "吒": 1161,
      "吓": 1162,
      "吔": 1163,
      "吕": 1164,
      "吖": 1165,
      "吗": 1166,
      "君": 1167,
      "吝": 1168,
      "吞": 1169,
      "吟": 1170,
      "吠": 1171,
      "吡": 1172,
      "吢": 1173,
      "吣": 1174,
      "吥": 1175,
      "否": 1176,
      "吧": 1177,
      "吨": 1178,
      "吩": 1179,
      "含": 1180,
      "听": 1181,
      "吭": 1182,
      "吮": 1183,
      "启": 1184,
      "吱": 1185,
      "吲": 1186,
      "吴": 1187,
      "吵": 1188,
      "吸": 1189,
      "吹": 1190,
      "吻": 1191,
      "吼": 1192,
      "吽": 1193,
      "吾": 1194,
      "吿": 1195,
      "呀": 1196,
      "呃": 1197,
      "呅": 1198,
      "呆": 1199,
      "呈": 1200,
      "告": 1201,
      "呋": 1202,
      "呎": 1203,
      "呐": 1204,
      "呑": 1205,
      "呒": 1206,
      "呓": 1207,
      "呔": 1208,
      "呕": 1209,
      "呗": 1210,
      "员": 1211,
      "呛": 1212,
      "呜": 1213,
      "呢": 1214,
      "呣": 1215,
      "呤": 1216,
      "呦": 1217,
      "周": 1218,
      "呫": 1219,
      "呯": 1220,
      "呱": 1221,
      "呲": 1222,
      "味": 1223,
      "呵": 1224,
      "呶": 1225,
      "呷": 1226,
      "呸": 1227,
      "呻": 1228,
      "呼": 1229,
      "命": 1230,
      "咀": 1231,
      "咁": 1232,
      "咂": 1233,
      "咃": 1234,
      "咄": 1235,
      "咆": 1236,
      "咋": 1237,
      "和": 1238,
      "咎": 1239,
      "咏": 1240,
      "咐": 1241,
      "咒": 1242,
      "咔": 1243,
      "咕": 1244,
      "咖": 1245,
      "咗": 1246,
      "咙": 1247,
      "咚": 1248,
      "咛": 1249,
      "咝": 1250,
      "咣": 1251,
      "咤": 1252,
      "咦": 1253,
      "咧": 1254,
      "咨": 1255,
      "咩": 1256,
      "咪": 1257,
      "咫": 1258,
      "咬": 1259,
      "咭": 1260,
      "咯": 1261,
      "咱": 1262,
      "咲": 1263,
      "咳": 1264,
      "咴": 1265,
      "咵": 1266,
      "咸": 1267,
      "咹": 1268,
      "咻": 1269,
      "咽": 1270,
      "咾": 1271,
      "咿": 1272,
      "哀": 1273,
      "品": 1274,
      "哂": 1275,
      "哄": 1276,
      "哆": 1277,
      "哇": 1278,
      "哈": 1279,
      "哉": 1280,
      "哋": 1281,
      "哌": 1282,
      "响": 1283,
      "哎": 1284,
      "哏": 1285,
      "哐": 1286,
      "哑": 1287,
      "哒": 1288,
      "哔": 1289,
      "哖": 1290,
      "哗": 1291,
      "哘": 1292,
      "哙": 1293,
      "哚": 1294,
      "哝": 1295,
      "哞": 1296,
      "哟": 1297,
      "哥": 1298,
      "哦": 1299,
      "哧": 1300,
      "哨": 1301,
      "哩": 1302,
      "哪": 1303,
      "哭": 1304,
      "哮": 1305,
      "哲": 1306,
      "哺": 1307,
      "哼": 1308,
      "哽": 1309,
      "唁": 1310,
      "唃": 1311,
      "唆": 1312,
      "唇": 1313,
      "唉": 1314,
      "唏": 1315,
      "唐": 1316,
      "唑": 1317,
      "唔": 1318,
      "唛": 1319,
      "唠": 1320,
      "唡": 1321,
      "唢": 1322,
      "唣": 1323,
      "唤": 1324,
      "唧": 1325,
      "唪": 1326,
      "唬": 1327,
      "售": 1328,
      "唯": 1329,
      "唰": 1330,
      "唱": 1331,
      "唳": 1332,
      "唵": 1333,
      "唷": 1334,
      "唻": 1335,
      "唾": 1336,
      "唿": 1337,
      "啁": 1338,
      "啃": 1339,
      "啄": 1340,
      "商": 1341,
      "啉": 1342,
      "啊": 1343,
      "啎": 1344,
      "啐": 1345,
      "啕": 1346,
      "啖": 1347,
      "啜": 1348,
      "啝": 1349,
      "啡": 1350,
      "啤": 1351,
      "啥": 1352,
      "啦": 1353,
      "啧": 1354,
      "啩": 1355,
      "啪": 1356,
      "啫": 1357,
      "啬": 1358,
      "啭": 1359,
      "啮": 1360,
      "啰": 1361,
      "啲": 1362,
      "啵": 1363,
      "啶": 1364,
      "啷": 1365,
      "啸": 1366,
      "啻": 1367,
      "啼": 1368,
      "啾": 1369,
      "喀": 1370,
      "喁": 1371,
      "喂": 1372,
      "喃": 1373,
      "善": 1374,
      "喆": 1375,
      "喇": 1376,
      "喉": 1377,
      "喊": 1378,
      "喋": 1379,
      "喎": 1380,
      "喏": 1381,
      "喐": 1382,
      "喑": 1383,
      "喔": 1384,
      "喘": 1385,
      "喙": 1386,
      "喜": 1387,
      "喝": 1388,
      "喟": 1389,
      "喥": 1390,
      "喧": 1391,
      "喨": 1392,
      "喱": 1393,
      "喳": 1394,
      "喴": 1395,
      "喵": 1396,
      "喷": 1397,
      "喹": 1398,
      "喺": 1399,
      "喻": 1400,
      "喽": 1401,
      "喾": 1402,
      "嗄": 1403,
      "嗅": 1404,
      "嗈": 1405,
      "嗉": 1406,
      "嗌": 1407,
      "嗐": 1408,
      "嗑": 1409,
      "嗒": 1410,
      "嗓": 1411,
      "嗔": 1412,
      "嗖": 1413,
      "嗜": 1414,
      "嗝": 1415,
      "嗞": 1416,
      "嗟": 1417,
      "嗡": 1418,
      "嗣": 1419,
      "嗤": 1420,
      "嗥": 1421,
      "嗦": 1422,
      "嗨": 1423,
      "嗪": 1424,
      "嗫": 1425,
      "嗬": 1426,
      "嗮": 1427,
      "嗯": 1428,
      "嗰": 1429,
      "嗱": 1430,
      "嗲": 1431,
      "嗳": 1432,
      "嗵": 1433,
      "嗷": 1434,
      "嗽": 1435,
      "嘀": 1436,
      "嘁": 1437,
      "嘅": 1438,
      "嘈": 1439,
      "嘉": 1440,
      "嘌": 1441,
      "嘎": 1442,
      "嘏": 1443,
      "嘒": 1444,
      "嘘": 1445,
      "嘚": 1446,
      "嘛": 1447,
      "嘞": 1448,
      "嘟": 1449,
      "嘢": 1450,
      "嘣": 1451,
      "嘤": 1452,
      "嘦": 1453,
      "嘧": 1454,
      "嘬": 1455,
      "嘭": 1456,
      "嘱": 1457,
      "嘲": 1458,
      "嘴": 1459,
      "嘶": 1460,
      "嘹": 1461,
      "嘻": 1462,
      "嘿": 1463,
      "噉": 1464,
      "噌": 1465,
      "噍": 1466,
      "噎": 1467,
      "噐": 1468,
      "噔": 1469,
      "噗": 1470,
      "噘": 1471,
      "噙": 1472,
      "噚": 1473,
      "噜": 1474,
      "噟": 1475,
      "噢": 1476,
      "噤": 1477,
      "器": 1478,
      "噩": 1479,
      "噪": 1480,
      "噫": 1481,
      "噬": 1482,
      "噱": 1483,
      "噶": 1484,
      "噻": 1485,
      "噼": 1486,
      "嚄": 1487,
      "嚅": 1488,
      "嚆": 1489,
      "嚎": 1490,
      "嚏": 1491,
      "嚒": 1492,
      "嚓": 1493,
      "嚜": 1494,
      "嚞": 1495,
      "嚟": 1496,
      "嚣": 1497,
      "嚥": 1498,
      "嚯": 1499,
      "嚷": 1500,
      "嚸": 1501,
      "嚼": 1502,
      "囄": 1503,
      "囊": 1504,
      "囍": 1505,
      "囓": 1506,
      "囔": 1507,
      "囖": 1508,
      "囗": 1509,
      "囘": 1510,
      "囙": 1511,
      "囚": 1512,
      "四": 1513,
      "囝": 1514,
      "回": 1515,
      "囟": 1516,
      "因": 1517,
      "囡": 1518,
      "团": 1519,
      "囤": 1520,
      "囧": 1521,
      "囫": 1522,
      "囬": 1523,
      "园": 1524,
      "囯": 1525,
      "困": 1526,
      "囱": 1527,
      "図": 1528,
      "围": 1529,
      "囵": 1530,
      "囹": 1531,
      "固": 1532,
      "囼": 1533,
      "国": 1534,
      "图": 1535,
      "囿": 1536,
      "圃": 1537,
      "圄": 1538,
      "圆": 1539,
      "圈": 1540,
      "圌": 1541,
      "圏": 1542,
      "圜": 1543,
      "土": 1544,
      "圣": 1545,
      "圧": 1546,
      "在": 1547,
      "圩": 1548,
      "圪": 1549,
      "圬": 1550,
      "圭": 1551,
      "圮": 1552,
      "地": 1553,
      "圳": 1554,
      "圴": 1555,
      "圹": 1556,
      "场": 1557,
      "圻": 1558,
      "圾": 1559,
      "址": 1560,
      "坂": 1561,
      "均": 1562,
      "坊": 1563,
      "坍": 1564,
      "坎": 1565,
      "坏": 1566,
      "坐": 1567,
      "坑": 1568,
      "块": 1569,
      "坚": 1570,
      "坛": 1571,
      "坜": 1572,
      "坝": 1573,
      "坞": 1574,
      "坟": 1575,
      "坠": 1576,
      "坡": 1577,
      "坢": 1578,
      "坤": 1579,
      "坦": 1580,
      "坨": 1581,
      "坩": 1582,
      "坪": 1583,
      "坭": 1584,
      "坯": 1585,
      "坲": 1586,
      "坳": 1587,
      "坷": 1588,
      "坻": 1589,
      "坼": 1590,
      "垂": 1591,
      "垃": 1592,
      "垄": 1593,
      "垅": 1594,
      "型": 1595,
      "垌": 1596,
      "垒": 1597,
      "垓": 1598,
      "垚": 1599,
      "垛": 1600,
      "垟": 1601,
      "垠": 1602,
      "垡": 1603,
      "垢": 1604,
      "垣": 1605,
      "垤": 1606,
      "垥": 1607,
      "垦": 1608,
      "垩": 1609,
      "垫": 1610,
      "垭": 1611,
      "垮": 1612,
      "垳": 1613,
      "垴": 1614,
      "垵": 1615,
      "垸": 1616,
      "垻": 1617,
      "埂": 1618,
      "埃": 1619,
      "埈": 1620,
      "埋": 1621,
      "埌": 1622,
      "城": 1623,
      "埒": 1624,
      "埔": 1625,
      "埕": 1626,
      "埗": 1627,
      "埘": 1628,
      "埙": 1629,
      "埚": 1630,
      "埜": 1631,
      "埝": 1632,
      "域": 1633,
      "埠": 1634,
      "埤": 1635,
      "埭": 1636,
      "埳": 1637,
      "埵": 1638,
      "埸": 1639,
      "培": 1640,
      "基": 1641,
      "埼": 1642,
      "堀": 1643,
      "堂": 1644,
      "堃": 1645,
      "堆": 1646,
      "堇": 1647,
      "堉": 1648,
      "堋": 1649,
      "堑": 1650,
      "堕": 1651,
      "堙": 1652,
      "堞": 1653,
      "堠": 1654,
      "堡": 1655,
      "堤": 1656,
      "堧": 1657,
      "堪": 1658,
      "堫": 1659,
      "堮": 1660,
      "堰": 1661,
      "堵": 1662,
      "堶": 1663,
      "堸": 1664,
      "堿": 1665,
      "塉": 1666,
      "塌": 1667,
      "塍": 1668,
      "塐": 1669,
      "塑": 1670,
      "塔": 1671,
      "塘": 1672,
      "塜": 1673,
      "塝": 1674,
      "塞": 1675,
      "塡": 1676,
      "塨": 1677,
      "塩": 1678,
      "填": 1679,
      "塬": 1680,
      "塭": 1681,
      "塱": 1682,
      "塲": 1683,
      "塾": 1684,
      "境": 1685,
      "墅": 1686,
      "墈": 1687,
      "墉": 1688,
      "墐": 1689,
      "墒": 1690,
      "墓": 1691,
      "増": 1692,
      "墙": 1693,
      "墚": 1694,
      "增": 1695,
      "墟": 1696,
      "墨": 1697,
      "墩": 1698,
      "墬": 1699,
      "墿": 1700,
      "壁": 1701,
      "壅": 1702,
      "壆": 1703,
      "壈": 1704,
      "壎": 1705,
      "壑": 1706,
      "壕": 1707,
      "壤": 1708,
      "士": 1709,
      "壬": 1710,
      "壮": 1711,
      "声": 1712,
      "壳": 1713,
      "壶": 1714,
      "壹": 1715,
      "夀": 1716,
      "夂": 1717,
      "处": 1718,
      "备": 1719,
      "変": 1720,
      "复": 1721,
      "夏": 1722,
      "夔": 1723,
      "夕": 1724,
      "外": 1725,
      "夙": 1726,
      "多": 1727,
      "夜": 1728,
      "夝": 1729,
      "够": 1730,
      "夥": 1731,
      "大": 1732,
      "天": 1733,
      "太": 1734,
      "夫": 1735,
      "夭": 1736,
      "央": 1737,
      "夯": 1738,
      "失": 1739,
      "夲": 1740,
      "头": 1741,
      "夶": 1742,
      "夷": 1743,
      "夸": 1744,
      "夹": 1745,
      "夺": 1746,
      "夼": 1747,
      "奁": 1748,
      "奂": 1749,
      "奄": 1750,
      "奇": 1751,
      "奈": 1752,
      "奉": 1753,
      "奊": 1754,
      "奋": 1755,
      "奌": 1756,
      "奍": 1757,
      "奎": 1758,
      "奏": 1759,
      "契": 1760,
      "奓": 1761,
      "奔": 1762,
      "奕": 1763,
      "奖": 1764,
      "套": 1765,
      "奘": 1766,
      "奚": 1767,
      "奠": 1768,
      "奢": 1769,
      "奣": 1770,
      "奥": 1771,
      "奭": 1772,
      "女": 1773,
      "奴": 1774,
      "奶": 1775,
      "奸": 1776,
      "她": 1777,
      "好": 1778,
      "妁": 1779,
      "如": 1780,
      "妃": 1781,
      "妄": 1782,
      "妆": 1783,
      "妇": 1784,
      "妈": 1785,
      "妊": 1786,
      "妍": 1787,
      "妒": 1788,
      "妓": 1789,
      "妖": 1790,
      "妗": 1791,
      "妘": 1792,
      "妙": 1793,
      "妞": 1794,
      "妤": 1795,
      "妥": 1796,
      "妨": 1797,
      "妩": 1798,
      "妪": 1799,
      "妫": 1800,
      "妬": 1801,
      "妮": 1802,
      "妯": 1803,
      "妲": 1804,
      "妳": 1805,
      "妹": 1806,
      "妺": 1807,
      "妻": 1808,
      "妾": 1809,
      "姆": 1810,
      "姊": 1811,
      "始": 1812,
      "姐": 1813,
      "姑": 1814,
      "姒": 1815,
      "姓": 1816,
      "委": 1817,
      "姗": 1818,
      "姘": 1819,
      "姚": 1820,
      "姜": 1821,
      "姝": 1822,
      "姣": 1823,
      "姥": 1824,
      "姨": 1825,
      "姫": 1826,
      "姬": 1827,
      "姮": 1828,
      "姵": 1829,
      "姹": 1830,
      "姺": 1831,
      "姻": 1832,
      "姿": 1833,
      "威": 1834,
      "娃": 1835,
      "娄": 1836,
      "娅": 1837,
      "娆": 1838,
      "娇": 1839,
      "娈": 1840,
      "娉": 1841,
      "娌": 1842,
      "娑": 1843,
      "娒": 1844,
      "娓": 1845,
      "娕": 1846,
      "娘": 1847,
      "娜": 1848,
      "娟": 1849,
      "娠": 1850,
      "娡": 1851,
      "娣": 1852,
      "娥": 1853,
      "娩": 1854,
      "娱": 1855,
      "娲": 1856,
      "娴": 1857,
      "娶": 1858,
      "娼": 1859,
      "婀": 1860,
      "婆": 1861,
      "婉": 1862,
      "婊": 1863,
      "婕": 1864,
      "婚": 1865,
      "婢": 1866,
      "婧": 1867,
      "婪": 1868,
      "婬": 1869,
      "婴": 1870,
      "婵": 1871,
      "婶": 1872,
      "婷": 1873,
      "婺": 1874,
      "婼": 1875,
      "婿": 1876,
      "媄": 1877,
      "媒": 1878,
      "媖": 1879,
      "媚": 1880,
      "媛": 1881,
      "媞": 1882,
      "媤": 1883,
      "媨": 1884,
      "媪": 1885,
      "媲": 1886,
      "媳": 1887,
      "媵": 1888,
      "媸": 1889,
      "媾": 1890,
      "嫁": 1891,
      "嫂": 1892,
      "嫉": 1893,
      "嫌": 1894,
      "嫒": 1895,
      "嫔": 1896,
      "嫖": 1897,
      "嫘": 1898,
      "嫝": 1899,
      "嫠": 1900,
      "嫡": 1901,
      "嫣": 1902,
      "嫦": 1903,
      "嫩": 1904,
      "嫫": 1905,
      "嫰": 1906,
      "嫲": 1907,
      "嫺": 1908,
      "嬁": 1909,
      "嬅": 1910,
      "嬉": 1911,
      "嬑": 1912,
      "嬖": 1913,
      "嬗": 1914,
      "嬛": 1915,
      "嬝": 1916,
      "嬠": 1917,
      "嬭": 1918,
      "嬴": 1919,
      "嬷": 1920,
      "嬿": 1921,
      "孀": 1922,
      "子": 1923,
      "孑": 1924,
      "孒": 1925,
      "孓": 1926,
      "孔": 1927,
      "孕": 1928,
      "孖": 1929,
      "字": 1930,
      "存": 1931,
      "孙": 1932,
      "孚": 1933,
      "孛": 1934,
      "孜": 1935,
      "孝": 1936,
      "孟": 1937,
      "孠": 1938,
      "孢": 1939,
      "季": 1940,
      "孤": 1941,
      "孥": 1942,
      "学": 1943,
      "孩": 1944,
      "孪": 1945,
      "孬": 1946,
      "孰": 1947,
      "孱": 1948,
      "孳": 1949,
      "孵": 1950,
      "孺": 1951,
      "孽": 1952,
      "宁": 1953,
      "它": 1954,
      "宄": 1955,
      "宅": 1956,
      "宇": 1957,
      "守": 1958,
      "安": 1959,
      "宋": 1960,
      "完": 1961,
      "宍": 1962,
      "宏": 1963,
      "宓": 1964,
      "宕": 1965,
      "宗": 1966,
      "官": 1967,
      "宙": 1968,
      "定": 1969,
      "宛": 1970,
      "宜": 1971,
      "宝": 1972,
      "实": 1973,
      "実": 1974,
      "宠": 1975,
      "审": 1976,
      "客": 1977,
      "宣": 1978,
      "室": 1979,
      "宥": 1980,
      "宦": 1981,
      "宨": 1982,
      "宪": 1983,
      "宫": 1984,
      "宬": 1985,
      "宭": 1986,
      "宰": 1987,
      "害": 1988,
      "宴": 1989,
      "宵": 1990,
      "家": 1991,
      "宸": 1992,
      "容": 1993,
      "宼": 1994,
      "宽": 1995,
      "宾": 1996,
      "宿": 1997,
      "寂": 1998,
      "寄": 1999,
      "寅": 2000,
      "密": 2001,
      "寇": 2002,
      "富": 2003,
      "寎": 2004,
      "寐": 2005,
      "寒": 2006,
      "寓": 2007,
      "寔": 2008,
      "寘": 2009,
      "寛": 2010,
      "寝": 2011,
      "寞": 2012,
      "察": 2013,
      "寠": 2014,
      "寡": 2015,
      "寤": 2016,
      "寥": 2017,
      "寨": 2018,
      "寪": 2019,
      "寮": 2020,
      "寰": 2021,
      "寳": 2022,
      "寷": 2023,
      "寸": 2024,
      "对": 2025,
      "寺": 2026,
      "寻": 2027,
      "导": 2028,
      "対": 2029,
      "寿": 2030,
      "封": 2031,
      "射": 2032,
      "尅": 2033,
      "将": 2034,
      "尉": 2035,
      "尊": 2036,
      "小": 2037,
      "少": 2038,
      "尒": 2039,
      "尓": 2040,
      "尔": 2041,
      "尕": 2042,
      "尖": 2043,
      "尘": 2044,
      "尙": 2045,
      "尚": 2046,
      "尜": 2047,
      "尝": 2048,
      "尟": 2049,
      "尢": 2050,
      "尤": 2051,
      "尥": 2052,
      "尧": 2053,
      "尪": 2054,
      "尬": 2055,
      "就": 2056,
      "尴": 2057,
      "尸": 2058,
      "尹": 2059,
      "尺": 2060,
      "尻": 2061,
      "尼": 2062,
      "尽": 2063,
      "尾": 2064,
      "尿": 2065,
      "局": 2066,
      "屁": 2067,
      "层": 2068,
      "屃": 2069,
      "屄": 2070,
      "居": 2071,
      "屇": 2072,
      "屈": 2073,
      "屉": 2074,
      "届": 2075,
      "屋": 2076,
      "屌": 2077,
      "屎": 2078,
      "屏": 2079,
      "屐": 2080,
      "屑": 2081,
      "展": 2082,
      "屙": 2083,
      "属": 2084,
      "屠": 2085,
      "屡": 2086,
      "屣": 2087,
      "履": 2088,
      "屯": 2089,
      "山": 2090,
      "屲": 2091,
      "屴": 2092,
      "屹": 2093,
      "屺": 2094,
      "屾": 2095,
      "屿": 2096,
      "岀": 2097,
      "岁": 2098,
      "岂": 2099,
      "岌": 2100,
      "岐": 2101,
      "岑": 2102,
      "岔": 2103,
      "岖": 2104,
      "岗": 2105,
      "岘": 2106,
      "岙": 2107,
      "岚": 2108,
      "岛": 2109,
      "岜": 2110,
      "岢": 2111,
      "岣": 2112,
      "岩": 2113,
      "岫": 2114,
      "岬": 2115,
      "岭": 2116,
      "岱": 2117,
      "岳": 2118,
      "岷": 2119,
      "岸": 2120,
      "岺": 2121,
      "岽": 2122,
      "岿": 2123,
      "峁": 2124,
      "峄": 2125,
      "峇": 2126,
      "峋": 2127,
      "峒": 2128,
      "峕": 2129,
      "峘": 2130,
      "峙": 2131,
      "峟": 2132,
      "峠": 2133,
      "峡": 2134,
      "峤": 2135,
      "峥": 2136,
      "峦": 2137,
      "峨": 2138,
      "峩": 2139,
      "峪": 2140,
      "峭": 2141,
      "峰": 2142,
      "峹": 2143,
      "峻": 2144,
      "崀": 2145,
      "崁": 2146,
      "崂": 2147,
      "崃": 2148,
      "崄": 2149,
      "崆": 2150,
      "崇": 2151,
      "崎": 2152,
      "崐": 2153,
      "崔": 2154,
      "崖": 2155,
      "崚": 2156,
      "崛": 2157,
      "崤": 2158,
      "崦": 2159,
      "崧": 2160,
      "崩": 2161,
      "崭": 2162,
      "崮": 2163,
      "崴": 2164,
      "崽": 2165,
      "崾": 2166,
      "嵁": 2167,
      "嵇": 2168,
      "嵊": 2169,
      "嵋": 2170,
      "嵌": 2171,
      "嵒": 2172,
      "嵗": 2173,
      "嵘": 2174,
      "嵛": 2175,
      "嵝": 2176,
      "嵦": 2177,
      "嵩": 2178,
      "嵬": 2179,
      "嵭": 2180,
      "嵯": 2181,
      "嵴": 2182,
      "嵸": 2183,
      "嶂": 2184,
      "嶋": 2185,
      "嶎": 2186,
      "嶒": 2187,
      "嶙": 2188,
      "嶝": 2189,
      "嶟": 2190,
      "巄": 2191,
      "巅": 2192,
      "巉": 2193,
      "巍": 2194,
      "巎": 2195,
      "巛": 2196,
      "川": 2197,
      "州": 2198,
      "巡": 2199,
      "巢": 2200,
      "工": 2201,
      "左": 2202,
      "巧": 2203,
      "巨": 2204,
      "巩": 2205,
      "巫": 2206,
      "差": 2207,
      "巯": 2208,
      "己": 2209,
      "已": 2210,
      "巳": 2211,
      "巴": 2212,
      "巷": 2213,
      "巽": 2214,
      "巾": 2215,
      "巿": 2216,
      "帀": 2217,
      "币": 2218,
      "市": 2219,
      "布": 2220,
      "帅": 2221,
      "帆": 2222,
      "师": 2223,
      "希": 2224,
      "帏": 2225,
      "帐": 2226,
      "帑": 2227,
      "帕": 2228,
      "帖": 2229,
      "帘": 2230,
      "帙": 2231,
      "帚": 2232,
      "帛": 2233,
      "帜": 2234,
      "帝": 2235,
      "帤": 2236,
      "带": 2237,
      "帧": 2238,
      "席": 2239,
      "帮": 2240,
      "帯": 2241,
      "帷": 2242,
      "常": 2243,
      "帼": 2244,
      "帽": 2245,
      "幂": 2246,
      "幄": 2247,
      "幅": 2248,
      "幌": 2249,
      "幔": 2250,
      "幕": 2251,
      "幛": 2252,
      "幠": 2253,
      "幡": 2254,
      "幢": 2255,
      "干": 2256,
      "平": 2257,
      "年": 2258,
      "幵": 2259,
      "并": 2260,
      "幷": 2261,
      "幸": 2262,
      "幺": 2263,
      "幻": 2264,
      "幼": 2265,
      "幽": 2266,
      "广": 2267,
      "庀": 2268,
      "庁": 2269,
      "広": 2270,
      "庄": 2271,
      "庆": 2272,
      "庇": 2273,
      "床": 2274,
      "庋": 2275,
      "序": 2276,
      "庐": 2277,
      "庑": 2278,
      "库": 2279,
      "应": 2280,
      "底": 2281,
      "庖": 2282,
      "店": 2283,
      "庙": 2284,
      "庚": 2285,
      "府": 2286,
      "庝": 2287,
      "庞": 2288,
      "废": 2289,
      "庠": 2290,
      "庥": 2291,
      "度": 2292,
      "座": 2293,
      "庭": 2294,
      "庳": 2295,
      "庵": 2296,
      "庶": 2297,
      "康": 2298,
      "庸": 2299,
      "庹": 2300,
      "庾": 2301,
      "廃": 2302,
      "廇": 2303,
      "廉": 2304,
      "廊": 2305,
      "廋": 2306,
      "廌": 2307,
      "廍": 2308,
      "廓": 2309,
      "廔": 2310,
      "廖": 2311,
      "廪": 2312,
      "延": 2313,
      "廷": 2314,
      "廸": 2315,
      "建": 2316,
      "廻": 2317,
      "廿": 2318,
      "开": 2319,
      "弁": 2320,
      "异": 2321,
      "弃": 2322,
      "弄": 2323,
      "弇": 2324,
      "弈": 2325,
      "弊": 2326,
      "弋": 2327,
      "弌": 2328,
      "弎": 2329,
      "式": 2330,
      "弑": 2331,
      "弓": 2332,
      "引": 2333,
      "弗": 2334,
      "弘": 2335,
      "弛": 2336,
      "弝": 2337,
      "弟": 2338,
      "张": 2339,
      "弢": 2340,
      "弥": 2341,
      "弦": 2342,
      "弧": 2343,
      "弩": 2344,
      "弭": 2345,
      "弯": 2346,
      "弱": 2347,
      "弶": 2348,
      "弹": 2349,
      "强": 2350,
      "弼": 2351,
      "彀": 2352,
      "彆": 2353,
      "彊": 2354,
      "归": 2355,
      "当": 2356,
      "录": 2357,
      "彖": 2358,
      "彗": 2359,
      "彝": 2360,
      "彡": 2361,
      "形": 2362,
      "彣": 2363,
      "彤": 2364,
      "彦": 2365,
      "彧": 2366,
      "彩": 2367,
      "彪": 2368,
      "彬": 2369,
      "彭": 2370,
      "彰": 2371,
      "影": 2372,
      "彳": 2373,
      "彷": 2374,
      "役": 2375,
      "彻": 2376,
      "彼": 2377,
      "往": 2378,
      "征": 2379,
      "徂": 2380,
      "径": 2381,
      "待": 2382,
      "徇": 2383,
      "很": 2384,
      "徉": 2385,
      "徊": 2386,
      "律": 2387,
      "徍": 2388,
      "徐": 2389,
      "徒": 2390,
      "徕": 2391,
      "得": 2392,
      "徘": 2393,
      "徙": 2394,
      "徜": 2395,
      "御": 2396,
      "徦": 2397,
      "徧": 2398,
      "徨": 2399,
      "循": 2400,
      "徬": 2401,
      "徭": 2402,
      "微": 2403,
      "徯": 2404,
      "徳": 2405,
      "徴": 2406,
      "徵": 2407,
      "德": 2408,
      "徼": 2409,
      "徽": 2410,
      "心": 2411,
      "必": 2412,
      "忆": 2413,
      "忈": 2414,
      "忉": 2415,
      "忌": 2416,
      "忍": 2417,
      "忏": 2418,
      "忐": 2419,
      "忑": 2420,
      "忒": 2421,
      "忖": 2422,
      "志": 2423,
      "忘": 2424,
      "忙": 2425,
      "忠": 2426,
      "忡": 2427,
      "忤": 2428,
      "忧": 2429,
      "忪": 2430,
      "快": 2431,
      "忭": 2432,
      "忮": 2433,
      "忱": 2434,
      "念": 2435,
      "忸": 2436,
      "忻": 2437,
      "忼": 2438,
      "忽": 2439,
      "忾": 2440,
      "忿": 2441,
      "怀": 2442,
      "态": 2443,
      "怂": 2444,
      "怄": 2445,
      "怅": 2446,
      "怆": 2447,
      "怍": 2448,
      "怎": 2449,
      "怏": 2450,
      "怒": 2451,
      "怔": 2452,
      "怕": 2453,
      "怖": 2454,
      "怙": 2455,
      "怛": 2456,
      "怜": 2457,
      "思": 2458,
      "怞": 2459,
      "怠": 2460,
      "怡": 2461,
      "急": 2462,
      "怦": 2463,
      "性": 2464,
      "怨": 2465,
      "怩": 2466,
      "怪": 2467,
      "怯": 2468,
      "怱": 2469,
      "怵": 2470,
      "总": 2471,
      "怼": 2472,
      "怿": 2473,
      "恁": 2474,
      "恃": 2475,
      "恉": 2476,
      "恋": 2477,
      "恍": 2478,
      "恏": 2479,
      "恐": 2480,
      "恒": 2481,
      "恕": 2482,
      "恙": 2483,
      "恚": 2484,
      "恠": 2485,
      "恢": 2486,
      "恣": 2487,
      "恤": 2488,
      "恨": 2489,
      "恩": 2490,
      "恪": 2491,
      "恫": 2492,
      "恬": 2493,
      "恭": 2494,
      "息": 2495,
      "恰": 2496,
      "恳": 2497,
      "恴": 2498,
      "恶": 2499,
      "恸": 2500,
      "恹": 2501,
      "恺": 2502,
      "恻": 2503,
      "恼": 2504,
      "恽": 2505,
      "恿": 2506,
      "悄": 2507,
      "悉": 2508,
      "悊": 2509,
      "悌": 2510,
      "悍": 2511,
      "悒": 2512,
      "悔": 2513,
      "悖": 2514,
      "悚": 2515,
      "悝": 2516,
      "悟": 2517,
      "悠": 2518,
      "悢": 2519,
      "患": 2520,
      "悦": 2521,
      "您": 2522,
      "悫": 2523,
      "悬": 2524,
      "悭": 2525,
      "悮": 2526,
      "悯": 2527,
      "悱": 2528,
      "悲": 2529,
      "悳": 2530,
      "悴": 2531,
      "悸": 2532,
      "悻": 2533,
      "悼": 2534,
      "情": 2535,
      "惆": 2536,
      "惇": 2537,
      "惊": 2538,
      "惋": 2539,
      "惏": 2540,
      "惑": 2541,
      "惒": 2542,
      "惕": 2543,
      "惗": 2544,
      "惘": 2545,
      "惙": 2546,
      "惚": 2547,
      "惜": 2548,
      "惟": 2549,
      "惠": 2550,
      "惢": 2551,
      "惦": 2552,
      "惧": 2553,
      "惨": 2554,
      "惩": 2555,
      "惪": 2556,
      "惫": 2557,
      "惬": 2558,
      "惭": 2559,
      "惮": 2560,
      "惯": 2561,
      "惰": 2562,
      "想": 2563,
      "惴": 2564,
      "惶": 2565,
      "惹": 2566,
      "惺": 2567,
      "愀": 2568,
      "愁": 2569,
      "愆": 2570,
      "愈": 2571,
      "愉": 2572,
      "愎": 2573,
      "意": 2574,
      "愒": 2575,
      "愕": 2576,
      "愚": 2577,
      "感": 2578,
      "愠": 2579,
      "愣": 2580,
      "愤": 2581,
      "愦": 2582,
      "愧": 2583,
      "愫": 2584,
      "愿": 2585,
      "慈": 2586,
      "慉": 2587,
      "慊": 2588,
      "慌": 2589,
      "慎": 2590,
      "慑": 2591,
      "慓": 2592,
      "慕": 2593,
      "慝": 2594,
      "慠": 2595,
      "慢": 2596,
      "慧": 2597,
      "慨": 2598,
      "慰": 2599,
      "慵": 2600,
      "慷": 2601,
      "憅": 2602,
      "憋": 2603,
      "憍": 2604,
      "憎": 2605,
      "憔": 2606,
      "憧": 2607,
      "憨": 2608,
      "憩": 2609,
      "憬": 2610,
      "憷": 2611,
      "憾": 2612,
      "懂": 2613,
      "懃": 2614,
      "懈": 2615,
      "懊": 2616,
      "懋": 2617,
      "懑": 2618,
      "懒": 2619,
      "懠": 2620,
      "懦": 2621,
      "懯": 2622,
      "懵": 2623,
      "懹": 2624,
      "懽": 2625,
      "懿": 2626,
      "戆": 2627,
      "戈": 2628,
      "戊": 2629,
      "戌": 2630,
      "戍": 2631,
      "戎": 2632,
      "戏": 2633,
      "成": 2634,
      "我": 2635,
      "戒": 2636,
      "戓": 2637,
      "戕": 2638,
      "或": 2639,
      "戗": 2640,
      "战": 2641,
      "戚": 2642,
      "戛": 2643,
      "戝": 2644,
      "戟": 2645,
      "戡": 2646,
      "戤": 2647,
      "戦": 2648,
      "截": 2649,
      "戬": 2650,
      "戮": 2651,
      "戳": 2652,
      "戴": 2653,
      "户": 2654,
      "戸": 2655,
      "戽": 2656,
      "戾": 2657,
      "房": 2658,
      "所": 2659,
      "扁": 2660,
      "扃": 2661,
      "扇": 2662,
      "扈": 2663,
      "扉": 2664,
      "手": 2665,
      "扌": 2666,
      "才": 2667,
      "扎": 2668,
      "扑": 2669,
      "扒": 2670,
      "打": 2671,
      "扔": 2672,
      "扖": 2673,
      "托": 2674,
      "扛": 2675,
      "扞": 2676,
      "扣": 2677,
      "扥": 2678,
      "扦": 2679,
      "执": 2680,
      "扩": 2681,
      "扪": 2682,
      "扫": 2683,
      "扬": 2684,
      "扭": 2685,
      "扮": 2686,
      "扯": 2687,
      "扰": 2688,
      "扳": 2689,
      "扴": 2690,
      "扶": 2691,
      "批": 2692,
      "扺": 2693,
      "扼": 2694,
      "找": 2695,
      "承": 2696,
      "技": 2697,
      "抄": 2698,
      "抉": 2699,
      "把": 2700,
      "抑": 2701,
      "抒": 2702,
      "抓": 2703,
      "抔": 2704,
      "投": 2705,
      "抖": 2706,
      "抗": 2707,
      "折": 2708,
      "抚": 2709,
      "抛": 2710,
      "抜": 2711,
      "抟": 2712,
      "抠": 2713,
      "抡": 2714,
      "抢": 2715,
      "护": 2716,
      "报": 2717,
      "抧": 2718,
      "抨": 2719,
      "披": 2720,
      "抬": 2721,
      "抯": 2722,
      "抱": 2723,
      "抵": 2724,
      "抹": 2725,
      "抻": 2726,
      "押": 2727,
      "抽": 2728,
      "抿": 2729,
      "拂": 2730,
      "拄": 2731,
      "担": 2732,
      "拆": 2733,
      "拇": 2734,
      "拈": 2735,
      "拉": 2736,
      "拊": 2737,
      "拌": 2738,
      "拍": 2739,
      "拎": 2740,
      "拐": 2741,
      "拒": 2742,
      "拓": 2743,
      "拔": 2744,
      "拖": 2745,
      "拗": 2746,
      "拘": 2747,
      "拙": 2748,
      "拚": 2749,
      "招": 2750,
      "拜": 2751,
      "拟": 2752,
      "拢": 2753,
      "拣": 2754,
      "拥": 2755,
      "拦": 2756,
      "拧": 2757,
      "拨": 2758,
      "择": 2759,
      "括": 2760,
      "拭": 2761,
      "拮": 2762,
      "拯": 2763,
      "拱": 2764,
      "拳": 2765,
      "拴": 2766,
      "拷": 2767,
      "拼": 2768,
      "拽": 2769,
      "拾": 2770,
      "拿": 2771,
      "持": 2772,
      "挂": 2773,
      "指": 2774,
      "挈": 2775,
      "按": 2776,
      "挎": 2777,
      "挐": 2778,
      "挑": 2779,
      "挖": 2780,
      "挚": 2781,
      "挛": 2782,
      "挝": 2783,
      "挞": 2784,
      "挟": 2785,
      "挠": 2786,
      "挡": 2787,
      "挢": 2788,
      "挣": 2789,
      "挤": 2790,
      "挥": 2791,
      "挦": 2792,
      "挨": 2793,
      "挪": 2794,
      "挫": 2795,
      "振": 2796,
      "挲": 2797,
      "挹": 2798,
      "挺": 2799,
      "挼": 2800,
      "挽": 2801,
      "捂": 2802,
      "捃": 2803,
      "捄": 2804,
      "捅": 2805,
      "捆": 2806,
      "捉": 2807,
      "捋": 2808,
      "捌": 2809,
      "捍": 2810,
      "捎": 2811,
      "捏": 2812,
      "捐": 2813,
      "捕": 2814,
      "捛": 2815,
      "捜": 2816,
      "捞": 2817,
      "损": 2818,
      "捡": 2819,
      "换": 2820,
      "捣": 2821,
      "捥": 2822,
      "捧": 2823,
      "捩": 2824,
      "据": 2825,
      "捱": 2826,
      "捲": 2827,
      "捶": 2828,
      "捷": 2829,
      "捺": 2830,
      "捻": 2831,
      "掀": 2832,
      "掂": 2833,
      "掇": 2834,
      "授": 2835,
      "掉": 2836,
      "掊": 2837,
      "掌": 2838,
      "掏": 2839,
      "掐": 2840,
      "排": 2841,
      "掖": 2842,
      "掘": 2843,
      "掞": 2844,
      "掠": 2845,
      "探": 2846,
      "掣": 2847,
      "接": 2848,
      "掦": 2849,
      "控": 2850,
      "推": 2851,
      "掩": 2852,
      "措": 2853,
      "掬": 2854,
      "掭": 2855,
      "掮": 2856,
      "掰": 2857,
      "掱": 2858,
      "掲": 2859,
      "掳": 2860,
      "掴": 2861,
      "掷": 2862,
      "掸": 2863,
      "掺": 2864,
      "掼": 2865,
      "揄": 2866,
      "揆": 2867,
      "揉": 2868,
      "揍": 2869,
      "描": 2870,
      "提": 2871,
      "插": 2872,
      "揖": 2873,
      "揝": 2874,
      "揠": 2875,
      "握": 2876,
      "揣": 2877,
      "揩": 2878,
      "揪": 2879,
      "揭": 2880,
      "援": 2881,
      "揶": 2882,
      "揷": 2883,
      "揸": 2884,
      "揽": 2885,
      "揾": 2886,
      "揿": 2887,
      "搀": 2888,
      "搁": 2889,
      "搂": 2890,
      "搅": 2891,
      "搆": 2892,
      "搌": 2893,
      "搏": 2894,
      "搐": 2895,
      "搓": 2896,
      "搔": 2897,
      "搛": 2898,
      "搜": 2899,
      "搞": 2900,
      "搠": 2901,
      "搡": 2902,
      "搣": 2903,
      "搦": 2904,
      "搧": 2905,
      "搪": 2906,
      "搬": 2907,
      "搭": 2908,
      "携": 2909,
      "搽": 2910,
      "搾": 2911,
      "摁": 2912,
      "摃": 2913,
      "摄": 2914,
      "摆": 2915,
      "摇": 2916,
      "摈": 2917,
      "摊": 2918,
      "摒": 2919,
      "摔": 2920,
      "摘": 2921,
      "摞": 2922,
      "摧": 2923,
      "摩": 2924,
      "摫": 2925,
      "摭": 2926,
      "摰": 2927,
      "摷": 2928,
      "摸": 2929,
      "摹": 2930,
      "摺": 2931,
      "摿": 2932,
      "撂": 2933,
      "撃": 2934,
      "撅": 2935,
      "撇": 2936,
      "撑": 2937,
      "撒": 2938,
      "撕": 2939,
      "撖": 2940,
      "撘": 2941,
      "撙": 2942,
      "撚": 2943,
      "撜": 2944,
      "撞": 2945,
      "撢": 2946,
      "撤": 2947,
      "撩": 2948,
      "撬": 2949,
      "播": 2950,
      "撮": 2951,
      "撰": 2952,
      "撵": 2953,
      "撷": 2954,
      "撸": 2955,
      "撺": 2956,
      "撼": 2957,
      "擀": 2958,
      "擂": 2959,
      "擅": 2960,
      "擆": 2961,
      "操": 2962,
      "擎": 2963,
      "擒": 2964,
      "擕": 2965,
      "擘": 2966,
      "擞": 2967,
      "擡": 2968,
      "擢": 2969,
      "擤": 2970,
      "擦": 2971,
      "擧": 2972,
      "擩": 2973,
      "擳": 2974,
      "攀": 2975,
      "攉": 2976,
      "攒": 2977,
      "攕": 2978,
      "攘": 2979,
      "攞": 2980,
      "攥": 2981,
      "攫": 2982,
      "支": 2983,
      "收": 2984,
      "攷": 2985,
      "攸": 2986,
      "改": 2987,
      "攺": 2988,
      "攻": 2989,
      "放": 2990,
      "政": 2991,
      "敀": 2992,
      "故": 2993,
      "效": 2994,
      "敌": 2995,
      "敎": 2996,
      "敏": 2997,
      "救": 2998,
      "敕": 2999,
      "敖": 3000,
      "教": 3001,
      "敛": 3002,
      "敝": 3003,
      "敞": 3004,
      "敢": 3005,
      "散": 3006,
      "敦": 3007,
      "敫": 3008,
      "敬": 3009,
      "数": 3010,
      "敲": 3011,
      "整": 3012,
      "敷": 3013,
      "文": 3014,
      "斋": 3015,
      "斌": 3016,
      "斍": 3017,
      "斎": 3018,
      "斐": 3019,
      "斑": 3020,
      "斒": 3021,
      "斓": 3022,
      "斗": 3023,
      "料": 3024,
      "斛": 3025,
      "斜": 3026,
      "斝": 3027,
      "斟": 3028,
      "斡": 3029,
      "斤": 3030,
      "斥": 3031,
      "斧": 3032,
      "斩": 3033,
      "断": 3034,
      "斯": 3035,
      "新": 3036,
      "斲": 3037,
      "方": 3038,
      "施": 3039,
      "旁": 3040,
      "旃": 3041,
      "旄": 3042,
      "旅": 3043,
      "旋": 3044,
      "旌": 3045,
      "旎": 3046,
      "族": 3047,
      "旖": 3048,
      "旗": 3049,
      "无": 3050,
      "既": 3051,
      "旣": 3052,
      "日": 3053,
      "旦": 3054,
      "旧": 3055,
      "旨": 3056,
      "早": 3057,
      "旬": 3058,
      "旭": 3059,
      "旮": 3060,
      "旯": 3061,
      "旱": 3062,
      "旳": 3063,
      "时": 3064,
      "旷": 3065,
      "旸": 3066,
      "旺": 3067,
      "旻": 3068,
      "昀": 3069,
      "昂": 3070,
      "昃": 3071,
      "昄": 3072,
      "昆": 3073,
      "昉": 3074,
      "昊": 3075,
      "昌": 3076,
      "明": 3077,
      "昏": 3078,
      "昐": 3079,
      "易": 3080,
      "昔": 3081,
      "昕": 3082,
      "昙": 3083,
      "昝": 3084,
      "星": 3085,
      "映": 3086,
      "春": 3087,
      "昧": 3088,
      "昨": 3089,
      "昫": 3090,
      "昭": 3091,
      "是": 3092,
      "昰": 3093,
      "昱": 3094,
      "昴": 3095,
      "昵": 3096,
      "昶": 3097,
      "昼": 3098,
      "昽": 3099,
      "显": 3100,
      "晁": 3101,
      "晃": 3102,
      "晋": 3103,
      "晌": 3104,
      "晏": 3105,
      "晒": 3106,
      "晓": 3107,
      "晔": 3108,
      "晕": 3109,
      "晖": 3110,
      "晗": 3111,
      "晙": 3112,
      "晚": 3113,
      "晟": 3114,
      "晢": 3115,
      "晤": 3116,
      "晦": 3117,
      "晧": 3118,
      "晨": 3119,
      "晩": 3120,
      "普": 3121,
      "景": 3122,
      "晰": 3123,
      "晳": 3124,
      "晴": 3125,
      "晶": 3126,
      "晷": 3127,
      "智": 3128,
      "晾": 3129,
      "暂": 3130,
      "暄": 3131,
      "暇": 3132,
      "暋": 3133,
      "暌": 3134,
      "暎": 3135,
      "暐": 3136,
      "暑": 3137,
      "暖": 3138,
      "暗": 3139,
      "暝": 3140,
      "暠": 3141,
      "暧": 3142,
      "暨": 3143,
      "暮": 3144,
      "暱": 3145,
      "暴": 3146,
      "暸": 3147,
      "暹": 3148,
      "暾": 3149,
      "曈": 3150,
      "曙": 3151,
      "曜": 3152,
      "曝": 3153,
      "曦": 3154,
      "曩": 3155,
      "曰": 3156,
      "曲": 3157,
      "曳": 3158,
      "更": 3159,
      "曷": 3160,
      "曹": 3161,
      "曻": 3162,
      "曼": 3163,
      "曾": 3164,
      "替": 3165,
      "最": 3166,
      "月": 3167,
      "有": 3168,
      "朊": 3169,
      "朋": 3170,
      "服": 3171,
      "朐": 3172,
      "朔": 3173,
      "朕": 3174,
      "朗": 3175,
      "望": 3176,
      "朝": 3177,
      "朞": 3178,
      "期": 3179,
      "朣": 3180,
      "朦": 3181,
      "木": 3182,
      "未": 3183,
      "末": 3184,
      "本": 3185,
      "札": 3186,
      "术": 3187,
      "朱": 3188,
      "朴": 3189,
      "朵": 3190,
      "机": 3191,
      "朼": 3192,
      "朽": 3193,
      "杀": 3194,
      "杂": 3195,
      "权": 3196,
      "杄": 3197,
      "杆": 3198,
      "杈": 3199,
      "杉": 3200,
      "杌": 3201,
      "李": 3202,
      "杏": 3203,
      "材": 3204,
      "村": 3205,
      "杓": 3206,
      "杖": 3207,
      "杜": 3208,
      "杞": 3209,
      "束": 3210,
      "杠": 3211,
      "条": 3212,
      "来": 3213,
      "杧": 3214,
      "杨": 3215,
      "杭": 3216,
      "杯": 3217,
      "杰": 3218,
      "杲": 3219,
      "杳": 3220,
      "杵": 3221,
      "杷": 3222,
      "杻": 3223,
      "杼": 3224,
      "松": 3225,
      "板": 3226,
      "极": 3227,
      "构": 3228,
      "枇": 3229,
      "枉": 3230,
      "枋": 3231,
      "枏": 3232,
      "析": 3233,
      "枒": 3234,
      "枕": 3235,
      "林": 3236,
      "枘": 3237,
      "枚": 3238,
      "果": 3239,
      "枝": 3240,
      "枞": 3241,
      "枠": 3242,
      "枢": 3243,
      "枣": 3244,
      "枥": 3245,
      "枨": 3246,
      "枪": 3247,
      "枫": 3248,
      "枬": 3249,
      "枭": 3250,
      "枯": 3251,
      "枰": 3252,
      "枱": 3253,
      "枳": 3254,
      "架": 3255,
      "枷": 3256,
      "枸": 3257,
      "枽": 3258,
      "柀": 3259,
      "柄": 3260,
      "柏": 3261,
      "某": 3262,
      "柑": 3263,
      "柒": 3264,
      "染": 3265,
      "柔": 3266,
      "柘": 3267,
      "柚": 3268,
      "柜": 3269,
      "柝": 3270,
      "柞": 3271,
      "柠": 3272,
      "柢": 3273,
      "查": 3274,
      "柩": 3275,
      "柬": 3276,
      "柯": 3277,
      "柰": 3278,
      "柱": 3279,
      "柳": 3280,
      "柴": 3281,
      "柸": 3282,
      "査": 3283,
      "柽": 3284,
      "柿": 3285,
      "栀": 3286,
      "栅": 3287,
      "标": 3288,
      "栈": 3289,
      "栉": 3290,
      "栋": 3291,
      "栌": 3292,
      "栎": 3293,
      "栏": 3294,
      "树": 3295,
      "栓": 3296,
      "栖": 3297,
      "栗": 3298,
      "栝": 3299,
      "栟": 3300,
      "校": 3301,
      "栢": 3302,
      "栩": 3303,
      "株": 3304,
      "栱": 3305,
      "栲": 3306,
      "样": 3307,
      "核": 3308,
      "根": 3309,
      "格": 3310,
      "栽": 3311,
      "栾": 3312,
      "桀": 3313,
      "桁": 3314,
      "桂": 3315,
      "桃": 3316,
      "桄": 3317,
      "桅": 3318,
      "框": 3319,
      "案": 3320,
      "桉": 3321,
      "桊": 3322,
      "桌": 3323,
      "桎": 3324,
      "桐": 3325,
      "桑": 3326,
      "桓": 3327,
      "桔": 3328,
      "桕": 3329,
      "桖": 3330,
      "桜": 3331,
      "桠": 3332,
      "桡": 3333,
      "桢": 3334,
      "档": 3335,
      "桤": 3336,
      "桥": 3337,
      "桦": 3338,
      "桧": 3339,
      "桨": 3340,
      "桩": 3341,
      "桫": 3342,
      "桲": 3343,
      "桶": 3344,
      "桷": 3345,
      "梀": 3346,
      "梁": 3347,
      "梅": 3348,
      "梆": 3349,
      "梏": 3350,
      "梓": 3351,
      "梗": 3352,
      "梠": 3353,
      "梢": 3354,
      "梣": 3355,
      "梦": 3356,
      "梧": 3357,
      "梨": 3358,
      "梭": 3359,
      "梮": 3360,
      "梯": 3361,
      "械": 3362,
      "梱": 3363,
      "梳": 3364,
      "梵": 3365,
      "梶": 3366,
      "梾": 3367,
      "梿": 3368,
      "检": 3369,
      "棂": 3370,
      "棈": 3371,
      "棉": 3372,
      "棋": 3373,
      "棌": 3374,
      "棍": 3375,
      "棒": 3376,
      "棓": 3377,
      "棕": 3378,
      "棘": 3379,
      "棚": 3380,
      "棠": 3381,
      "棣": 3382,
      "棫": 3383,
      "森": 3384,
      "棰": 3385,
      "棱": 3386,
      "棵": 3387,
      "棹": 3388,
      "棺": 3389,
      "棼": 3390,
      "椁": 3391,
      "椅": 3392,
      "椆": 3393,
      "椇": 3394,
      "椋": 3395,
      "植": 3396,
      "椎": 3397,
      "椐": 3398,
      "椑": 3399,
      "椒": 3400,
      "椖": 3401,
      "椛": 3402,
      "椠": 3403,
      "椤": 3404,
      "椪": 3405,
      "椭": 3406,
      "椰": 3407,
      "椴": 3408,
      "椹": 3409,
      "椽": 3410,
      "椿": 3411,
      "楂": 3412,
      "楔": 3413,
      "楖": 3414,
      "楚": 3415,
      "楝": 3416,
      "楞": 3417,
      "楠": 3418,
      "楢": 3419,
      "楣": 3420,
      "楤": 3421,
      "楦": 3422,
      "楫": 3423,
      "楬": 3424,
      "楮": 3425,
      "楯": 3426,
      "楷": 3427,
      "楸": 3428,
      "楹": 3429,
      "楼": 3430,
      "楽": 3431,
      "榀": 3432,
      "概": 3433,
      "榄": 3434,
      "榅": 3435,
      "榆": 3436,
      "榇": 3437,
      "榈": 3438,
      "榉": 3439,
      "榍": 3440,
      "榎": 3441,
      "榔": 3442,
      "榕": 3443,
      "榖": 3444,
      "榚": 3445,
      "榛": 3446,
      "榜": 3447,
      "榥": 3448,
      "榦": 3449,
      "榧": 3450,
      "榨": 3451,
      "榫": 3452,
      "榭": 3453,
      "榴": 3454,
      "榷": 3455,
      "榻": 3456,
      "槀": 3457,
      "槁": 3458,
      "槃": 3459,
      "槌": 3460,
      "槎": 3461,
      "槐": 3462,
      "槑": 3463,
      "槓": 3464,
      "槔": 3465,
      "様": 3466,
      "槛": 3467,
      "槟": 3468,
      "槠": 3469,
      "槭": 3470,
      "槲": 3471,
      "槴": 3472,
      "槽": 3473,
      "槾": 3474,
      "槿": 3475,
      "樊": 3476,
      "樋": 3477,
      "樗": 3478,
      "樘": 3479,
      "樛": 3480,
      "樟": 3481,
      "模": 3482,
      "樨": 3483,
      "横": 3484,
      "樯": 3485,
      "樱": 3486,
      "樵": 3487,
      "樽": 3488,
      "樾": 3489,
      "橄": 3490,
      "橇": 3491,
      "橐": 3492,
      "橘": 3493,
      "橙": 3494,
      "橛": 3495,
      "橡": 3496,
      "橥": 3497,
      "橱": 3498,
      "橹": 3499,
      "橼": 3500,
      "橾": 3501,
      "檀": 3502,
      "檄": 3503,
      "檐": 3504,
      "檗": 3505,
      "檞": 3506,
      "檩": 3507,
      "檫": 3508,
      "檬": 3509,
      "檵": 3510,
      "欠": 3511,
      "次": 3512,
      "欢": 3513,
      "欣": 3514,
      "欧": 3515,
      "欲": 3516,
      "欵": 3517,
      "欸": 3518,
      "欺": 3519,
      "款": 3520,
      "歆": 3521,
      "歇": 3522,
      "歉": 3523,
      "歌": 3524,
      "歓": 3525,
      "歙": 3526,
      "歛": 3527,
      "止": 3528,
      "正": 3529,
      "此": 3530,
      "步": 3531,
      "武": 3532,
      "歧": 3533,
      "歩": 3534,
      "歪": 3535,
      "歴": 3536,
      "歹": 3537,
      "歺": 3538,
      "死": 3539,
      "歼": 3540,
      "殁": 3541,
      "殂": 3542,
      "殃": 3543,
      "殄": 3544,
      "殆": 3545,
      "殇": 3546,
      "殉": 3547,
      "殊": 3548,
      "残": 3549,
      "殍": 3550,
      "殒": 3551,
      "殓": 3552,
      "殖": 3553,
      "殚": 3554,
      "殛": 3555,
      "殡": 3556,
      "殴": 3557,
      "段": 3558,
      "殷": 3559,
      "殽": 3560,
      "殿": 3561,
      "毁": 3562,
      "毂": 3563,
      "毅": 3564,
      "毋": 3565,
      "母": 3566,
      "毎": 3567,
      "每": 3568,
      "毒": 3569,
      "毓": 3570,
      "比": 3571,
      "毕": 3572,
      "毗": 3573,
      "毘": 3574,
      "毙": 3575,
      "毛": 3576,
      "毡": 3577,
      "毫": 3578,
      "毬": 3579,
      "毯": 3580,
      "毽": 3581,
      "氅": 3582,
      "氏": 3583,
      "氐": 3584,
      "民": 3585,
      "氓": 3586,
      "气": 3587,
      "氖": 3588,
      "氘": 3589,
      "氙": 3590,
      "氚": 3591,
      "氛": 3592,
      "氟": 3593,
      "氠": 3594,
      "氡": 3595,
      "氢": 3596,
      "氤": 3597,
      "氦": 3598,
      "氧": 3599,
      "氨": 3600,
      "氩": 3601,
      "氪": 3602,
      "氮": 3603,
      "氯": 3604,
      "氰": 3605,
      "氲": 3606,
      "水": 3607,
      "氵": 3608,
      "氶": 3609,
      "氷": 3610,
      "永": 3611,
      "氹": 3612,
      "氺": 3613,
      "氽": 3614,
      "氾": 3615,
      "汀": 3616,
      "汁": 3617,
      "求": 3618,
      "汄": 3619,
      "汆": 3620,
      "汇": 3621,
      "汉": 3622,
      "汊": 3623,
      "汐": 3624,
      "汔": 3625,
      "汕": 3626,
      "汗": 3627,
      "汛": 3628,
      "汜": 3629,
      "汝": 3630,
      "汞": 3631,
      "江": 3632,
      "池": 3633,
      "污": 3634,
      "汤": 3635,
      "汨": 3636,
      "汩": 3637,
      "汪": 3638,
      "汰": 3639,
      "汲": 3640,
      "汴": 3641,
      "汶": 3642,
      "汹": 3643,
      "汽": 3644,
      "汾": 3645,
      "沁": 3646,
      "沂": 3647,
      "沃": 3648,
      "沄": 3649,
      "沅": 3650,
      "沆": 3651,
      "沈": 3652,
      "沉": 3653,
      "沌": 3654,
      "沏": 3655,
      "沐": 3656,
      "沓": 3657,
      "沔": 3658,
      "沘": 3659,
      "沙": 3660,
      "沛": 3661,
      "沟": 3662,
      "沠": 3663,
      "没": 3664,
      "沢": 3665,
      "沣": 3666,
      "沤": 3667,
      "沥": 3668,
      "沦": 3669,
      "沧": 3670,
      "沩": 3671,
      "沪": 3672,
      "沫": 3673,
      "沬": 3674,
      "沭": 3675,
      "沮": 3676,
      "沱": 3677,
      "河": 3678,
      "沴": 3679,
      "沵": 3680,
      "沸": 3681,
      "油": 3682,
      "治": 3683,
      "沼": 3684,
      "沽": 3685,
      "沾": 3686,
      "沿": 3687,
      "泄": 3688,
      "泅": 3689,
      "泉": 3690,
      "泊": 3691,
      "泌": 3692,
      "泑": 3693,
      "泒": 3694,
      "泓": 3695,
      "泔": 3696,
      "法": 3697,
      "泖": 3698,
      "泗": 3699,
      "泛": 3700,
      "泝": 3701,
      "泞": 3702,
      "泠": 3703,
      "泡": 3704,
      "波": 3705,
      "泣": 3706,
      "泥": 3707,
      "注": 3708,
      "泪": 3709,
      "泫": 3710,
      "泮": 3711,
      "泯": 3712,
      "泰": 3713,
      "泱": 3714,
      "泳": 3715,
      "泵": 3716,
      "泷": 3717,
      "泸": 3718,
      "泺": 3719,
      "泻": 3720,
      "泼": 3721,
      "泽": 3722,
      "泾": 3723,
      "泿": 3724,
      "洁": 3725,
      "洄": 3726,
      "洅": 3727,
      "洇": 3728,
      "洊": 3729,
      "洋": 3730,
      "洌": 3731,
      "洎": 3732,
      "洐": 3733,
      "洑": 3734,
      "洒": 3735,
      "洗": 3736,
      "洙": 3737,
      "洛": 3738,
      "洞": 3739,
      "津": 3740,
      "洩": 3741,
      "洪": 3742,
      "洮": 3743,
      "洱": 3744,
      "洲": 3745,
      "洳": 3746,
      "洵": 3747,
      "洹": 3748,
      "洺": 3749,
      "活": 3750,
      "洼": 3751,
      "洽": 3752,
      "派": 3753,
      "洿": 3754,
      "流": 3755,
      "浃": 3756,
      "浄": 3757,
      "浅": 3758,
      "浆": 3759,
      "浇": 3760,
      "浈": 3761,
      "浊": 3762,
      "测": 3763,
      "浍": 3764,
      "济": 3765,
      "浏": 3766,
      "浐": 3767,
      "浑": 3768,
      "浒": 3769,
      "浓": 3770,
      "浔": 3771,
      "浙": 3772,
      "浚": 3773,
      "浛": 3774,
      "浜": 3775,
      "浞": 3776,
      "浠": 3777,
      "浣": 3778,
      "浦": 3779,
      "浩": 3780,
      "浪": 3781,
      "浮": 3782,
      "浴": 3783,
      "海": 3784,
      "浸": 3785,
      "浼": 3786,
      "涂": 3787,
      "涅": 3788,
      "消": 3789,
      "涉": 3790,
      "涌": 3791,
      "涎": 3792,
      "涐": 3793,
      "涑": 3794,
      "涓": 3795,
      "涔": 3796,
      "涕": 3797,
      "涘": 3798,
      "涙": 3799,
      "涛": 3800,
      "涝": 3801,
      "涞": 3802,
      "涟": 3803,
      "涠": 3804,
      "涡": 3805,
      "涣": 3806,
      "涤": 3807,
      "润": 3808,
      "涧": 3809,
      "涨": 3810,
      "涩": 3811,
      "涪": 3812,
      "涮": 3813,
      "涯": 3814,
      "液": 3815,
      "涵": 3816,
      "涸": 3817,
      "涿": 3818,
      "淀": 3819,
      "淂": 3820,
      "淄": 3821,
      "淅": 3822,
      "淆": 3823,
      "淇": 3824,
      "淉": 3825,
      "淋": 3826,
      "淌": 3827,
      "淏": 3828,
      "淑": 3829,
      "淖": 3830,
      "淘": 3831,
      "淙": 3832,
      "淝": 3833,
      "淞": 3834,
      "淠": 3835,
      "淡": 3836,
      "淤": 3837,
      "淦": 3838,
      "淩": 3839,
      "淫": 3840,
      "淬": 3841,
      "淮": 3842,
      "深": 3843,
      "淲": 3844,
      "淳": 3845,
      "淴": 3846,
      "混": 3847,
      "淹": 3848,
      "添": 3849,
      "淼": 3850,
      "渃": 3851,
      "清": 3852,
      "済": 3853,
      "渉": 3854,
      "渊": 3855,
      "渌": 3856,
      "渍": 3857,
      "渎": 3858,
      "渐": 3859,
      "渑": 3860,
      "渓": 3861,
      "渔": 3862,
      "渖": 3863,
      "渗": 3864,
      "渚": 3865,
      "渝": 3866,
      "渞": 3867,
      "渠": 3868,
      "渡": 3869,
      "渣": 3870,
      "渤": 3871,
      "渥": 3872,
      "渧": 3873,
      "温": 3874,
      "渭": 3875,
      "港": 3876,
      "渲": 3877,
      "渴": 3878,
      "游": 3879,
      "渺": 3880,
      "渻": 3881,
      "渼": 3882,
      "湃": 3883,
      "湄": 3884,
      "湍": 3885,
      "湎": 3886,
      "湐": 3887,
      "湖": 3888,
      "湘": 3889,
      "湛": 3890,
      "湜": 3891,
      "湟": 3892,
      "湫": 3893,
      "湮": 3894,
      "湲": 3895,
      "湾": 3896,
      "湿": 3897,
      "満": 3898,
      "溁": 3899,
      "溃": 3900,
      "溅": 3901,
      "溆": 3902,
      "溉": 3903,
      "溏": 3904,
      "源": 3905,
      "溘": 3906,
      "溜": 3907,
      "溞": 3908,
      "溟": 3909,
      "溠": 3910,
      "溢": 3911,
      "溥": 3912,
      "溧": 3913,
      "溪": 3914,
      "溯": 3915,
      "溱": 3916,
      "溲": 3917,
      "溴": 3918,
      "溶": 3919,
      "溺": 3920,
      "溻": 3921,
      "溼": 3922,
      "溽": 3923,
      "滁": 3924,
      "滂": 3925,
      "滃": 3926,
      "滆": 3927,
      "滇": 3928,
      "滉": 3929,
      "滋": 3930,
      "滏": 3931,
      "滑": 3932,
      "滓": 3933,
      "滔": 3934,
      "滕": 3935,
      "滗": 3936,
      "滘": 3937,
      "滙": 3938,
      "滚": 3939,
      "滝": 3940,
      "滞": 3941,
      "滟": 3942,
      "滠": 3943,
      "满": 3944,
      "滢": 3945,
      "滤": 3946,
      "滥": 3947,
      "滦": 3948,
      "滨": 3949,
      "滩": 3950,
      "滴": 3951,
      "滹": 3952,
      "漂": 3953,
      "漆": 3954,
      "漉": 3955,
      "漏": 3956,
      "漓": 3957,
      "演": 3958,
      "漕": 3959,
      "漝": 3960,
      "漠": 3961,
      "漥": 3962,
      "漩": 3963,
      "漪": 3964,
      "漫": 3965,
      "漯": 3966,
      "漱": 3967,
      "漳": 3968,
      "漾": 3969,
      "潆": 3970,
      "潇": 3971,
      "潍": 3972,
      "潖": 3973,
      "潘": 3974,
      "潜": 3975,
      "潞": 3976,
      "潟": 3977,
      "潢": 3978,
      "潦": 3979,
      "潭": 3980,
      "潮": 3981,
      "潲": 3982,
      "潴": 3983,
      "潸": 3984,
      "潺": 3985,
      "潼": 3986,
      "澄": 3987,
      "澈": 3988,
      "澉": 3989,
      "澍": 3990,
      "澎": 3991,
      "澜": 3992,
      "澡": 3993,
      "澧": 3994,
      "澪": 3995,
      "澭": 3996,
      "澳": 3997,
      "澶": 3998,
      "澹": 3999,
      "激": 4000,
      "濂": 4001,
      "濄": 4002,
      "濉": 4003,
      "濐": 4004,
      "濑": 4005,
      "濒": 4006,
      "濛": 4007,
      "濞": 4008,
      "濠": 4009,
      "濡": 4010,
      "濬": 4011,
      "濮": 4012,
      "濯": 4013,
      "瀑": 4014,
      "瀚": 4015,
      "瀛": 4016,
      "瀣": 4017,
      "瀬": 4018,
      "瀹": 4019,
      "灌": 4020,
      "灏": 4021,
      "灞": 4022,
      "灠": 4023,
      "火": 4024,
      "灬": 4025,
      "灭": 4026,
      "灯": 4027,
      "灰": 4028,
      "灵": 4029,
      "灶": 4030,
      "灸": 4031,
      "灼": 4032,
      "灾": 4033,
      "灿": 4034,
      "炀": 4035,
      "炁": 4036,
      "炅": 4037,
      "炆": 4038,
      "炉": 4039,
      "炊": 4040,
      "炎": 4041,
      "炒": 4042,
      "炔": 4043,
      "炕": 4044,
      "炖": 4045,
      "炘": 4046,
      "炙": 4047,
      "炜": 4048,
      "炝": 4049,
      "炤": 4050,
      "炫": 4051,
      "炬": 4052,
      "炭": 4053,
      "炮": 4054,
      "炯": 4055,
      "炱": 4056,
      "炳": 4057,
      "炷": 4058,
      "炸": 4059,
      "点": 4060,
      "炻": 4061,
      "炼": 4062,
      "炽": 4063,
      "烁": 4064,
      "烂": 4065,
      "烃": 4066,
      "烈": 4067,
      "烊": 4068,
      "烘": 4069,
      "烙": 4070,
      "烚": 4071,
      "烛": 4072,
      "烜": 4073,
      "烟": 4074,
      "烤": 4075,
      "烦": 4076,
      "烧": 4077,
      "烨": 4078,
      "烩": 4079,
      "烫": 4080,
      "烬": 4081,
      "热": 4082,
      "烯": 4083,
      "烷": 4084,
      "烹": 4085,
      "烽": 4086,
      "烿": 4087,
      "焉": 4088,
      "焊": 4089,
      "焓": 4090,
      "焕": 4091,
      "焖": 4092,
      "焗": 4093,
      "焘": 4094,
      "焙": 4095,
      "焚": 4096,
      "焜": 4097,
      "焦": 4098,
      "焯": 4099,
      "焰": 4100,
      "焱": 4101,
      "然": 4102,
      "焼": 4103,
      "煅": 4104,
      "煊": 4105,
      "煌": 4106,
      "煎": 4107,
      "煑": 4108,
      "煜": 4109,
      "煞": 4110,
      "煤": 4111,
      "煦": 4112,
      "照": 4113,
      "煨": 4114,
      "煮": 4115,
      "煲": 4116,
      "煳": 4117,
      "煸": 4118,
      "煺": 4119,
      "煽": 4120,
      "熄": 4121,
      "熊": 4122,
      "熏": 4123,
      "熔": 4124,
      "熘": 4125,
      "熙": 4126,
      "熛": 4127,
      "熟": 4128,
      "熠": 4129,
      "熨": 4130,
      "熬": 4131,
      "熵": 4132,
      "熹": 4133,
      "燃": 4134,
      "燊": 4135,
      "燎": 4136,
      "燐": 4137,
      "燔": 4138,
      "燕": 4139,
      "燠": 4140,
      "燥": 4141,
      "燧": 4142,
      "燨": 4143,
      "燮": 4144,
      "燿": 4145,
      "爆": 4146,
      "爇": 4147,
      "爪": 4148,
      "爬": 4149,
      "爰": 4150,
      "爱": 4151,
      "爵": 4152,
      "父": 4153,
      "爷": 4154,
      "爸": 4155,
      "爹": 4156,
      "爻": 4157,
      "爽": 4158,
      "爿": 4159,
      "片": 4160,
      "版": 4161,
      "牋": 4162,
      "牌": 4163,
      "牍": 4164,
      "牐": 4165,
      "牒": 4166,
      "牖": 4167,
      "牙": 4168,
      "牛": 4169,
      "牝": 4170,
      "牟": 4171,
      "牠": 4172,
      "牡": 4173,
      "牢": 4174,
      "牤": 4175,
      "牦": 4176,
      "牧": 4177,
      "物": 4178,
      "牯": 4179,
      "牲": 4180,
      "牴": 4181,
      "牵": 4182,
      "牶": 4183,
      "牷": 4184,
      "牸": 4185,
      "特": 4186,
      "牺": 4187,
      "牾": 4188,
      "犀": 4189,
      "犁": 4190,
      "犄": 4191,
      "犊": 4192,
      "犍": 4193,
      "犏": 4194,
      "犒": 4195,
      "犟": 4196,
      "犫": 4197,
      "犬": 4198,
      "犮": 4199,
      "犯": 4200,
      "犰": 4201,
      "状": 4202,
      "犷": 4203,
      "犸": 4204,
      "犹": 4205,
      "狂": 4206,
      "狄": 4207,
      "狆": 4208,
      "狈": 4209,
      "狌": 4210,
      "狍": 4211,
      "狎": 4212,
      "狐": 4213,
      "狒": 4214,
      "狗": 4215,
      "狙": 4216,
      "狞": 4217,
      "狠": 4218,
      "狡": 4219,
      "狨": 4220,
      "狩": 4221,
      "独": 4222,
      "狭": 4223,
      "狮": 4224,
      "狰": 4225,
      "狱": 4226,
      "狲": 4227,
      "狳": 4228,
      "狷": 4229,
      "狸": 4230,
      "狺": 4231,
      "狻": 4232,
      "狼": 4233,
      "猁": 4234,
      "猊": 4235,
      "猎": 4236,
      "猕": 4237,
      "猖": 4238,
      "猗": 4239,
      "猛": 4240,
      "猜": 4241,
      "猝": 4242,
      "猞": 4243,
      "猡": 4244,
      "猢": 4245,
      "猥": 4246,
      "猩": 4247,
      "猪": 4248,
      "猫": 4249,
      "猬": 4250,
      "献": 4251,
      "猴": 4252,
      "猷": 4253,
      "猾": 4254,
      "猿": 4255,
      "獍": 4256,
      "獐": 4257,
      "獒": 4258,
      "獗": 4259,
      "獚": 4260,
      "獠": 4261,
      "獭": 4262,
      "獴": 4263,
      "獾": 4264,
      "玄": 4265,
      "玆": 4266,
      "率": 4267,
      "玈": 4268,
      "玉": 4269,
      "王": 4270,
      "玎": 4271,
      "玐": 4272,
      "玑": 4273,
      "玓": 4274,
      "玖": 4275,
      "玛": 4276,
      "玟": 4277,
      "玢": 4278,
      "玥": 4279,
      "玦": 4280,
      "玩": 4281,
      "玫": 4282,
      "玮": 4283,
      "环": 4284,
      "现": 4285,
      "玲": 4286,
      "玳": 4287,
      "玷": 4288,
      "玺": 4289,
      "玻": 4290,
      "珀": 4291,
      "珂": 4292,
      "珅": 4293,
      "珈": 4294,
      "珉": 4295,
      "珊": 4296,
      "珍": 4297,
      "珎": 4298,
      "珏": 4299,
      "珐": 4300,
      "珑": 4301,
      "珙": 4302,
      "珞": 4303,
      "珠": 4304,
      "珣": 4305,
      "珥": 4306,
      "珦": 4307,
      "珧": 4308,
      "珩": 4309,
      "班": 4310,
      "珮": 4311,
      "珲": 4312,
      "珺": 4313,
      "珽": 4314,
      "球": 4315,
      "琅": 4316,
      "理": 4317,
      "琇": 4318,
      "琉": 4319,
      "琊": 4320,
      "琍": 4321,
      "琏": 4322,
      "琐": 4323,
      "琚": 4324,
      "琛": 4325,
      "琠": 4326,
      "琢": 4327,
      "琥": 4328,
      "琦": 4329,
      "琨": 4330,
      "琪": 4331,
      "琫": 4332,
      "琬": 4333,
      "琮": 4334,
      "琯": 4335,
      "琰": 4336,
      "琲": 4337,
      "琳": 4338,
      "琴": 4339,
      "琵": 4340,
      "琶": 4341,
      "琹": 4342,
      "琼": 4343,
      "瑀": 4344,
      "瑁": 4345,
      "瑄": 4346,
      "瑕": 4347,
      "瑗": 4348,
      "瑙": 4349,
      "瑚": 4350,
      "瑛": 4351,
      "瑜": 4352,
      "瑞": 4353,
      "瑟": 4354,
      "瑢": 4355,
      "瑥": 4356,
      "瑭": 4357,
      "瑰": 4358,
      "瑶": 4359,
      "瑷": 4360,
      "瑸": 4361,
      "瑾": 4362,
      "璀": 4363,
      "璁": 4364,
      "璃": 4365,
      "璄": 4366,
      "璇": 4367,
      "璈": 4368,
      "璋": 4369,
      "璎": 4370,
      "璐": 4371,
      "璘": 4372,
      "璜": 4373,
      "璞": 4374,
      "璟": 4375,
      "璠": 4376,
      "璧": 4377,
      "璨": 4378,
      "璷": 4379,
      "璺": 4380,
      "瓒": 4381,
      "瓗": 4382,
      "瓜": 4383,
      "瓟": 4384,
      "瓠": 4385,
      "瓢": 4386,
      "瓣": 4387,
      "瓤": 4388,
      "瓦": 4389,
      "瓩": 4390,
      "瓮": 4391,
      "瓯": 4392,
      "瓰": 4393,
      "瓱": 4394,
      "瓴": 4395,
      "瓶": 4396,
      "瓷": 4397,
      "瓹": 4398,
      "瓿": 4399,
      "甀": 4400,
      "甁": 4401,
      "甄": 4402,
      "甋": 4403,
      "甏": 4404,
      "甑": 4405,
      "甕": 4406,
      "甗": 4407,
      "甘": 4408,
      "甙": 4409,
      "甚": 4410,
      "甜": 4411,
      "生": 4412,
      "甡": 4413,
      "甥": 4414,
      "用": 4415,
      "甩": 4416,
      "甪": 4417,
      "甫": 4418,
      "甬": 4419,
      "甭": 4420,
      "甯": 4421,
      "田": 4422,
      "由": 4423,
      "甲": 4424,
      "申": 4425,
      "电": 4426,
      "男": 4427,
      "甸": 4428,
      "町": 4429,
      "画": 4430,
      "甽": 4431,
      "甾": 4432,
      "畀": 4433,
      "畄": 4434,
      "畅": 4435,
      "畈": 4436,
      "畋": 4437,
      "界": 4438,
      "畏": 4439,
      "畑": 4440,
      "畔": 4441,
      "留": 4442,
      "畚": 4443,
      "畛": 4444,
      "畜": 4445,
      "畞": 4446,
      "畠": 4447,
      "略": 4448,
      "畦": 4449,
      "番": 4450,
      "畬": 4451,
      "畯": 4452,
      "畱": 4453,
      "畲": 4454,
      "畳": 4455,
      "畴": 4456,
      "畸": 4457,
      "畿": 4458,
      "疃": 4459,
      "疆": 4460,
      "疋": 4461,
      "疍": 4462,
      "疏": 4463,
      "疑": 4464,
      "疒": 4465,
      "疔": 4466,
      "疖": 4467,
      "疗": 4468,
      "疙": 4469,
      "疚": 4470,
      "疝": 4471,
      "疟": 4472,
      "疠": 4473,
      "疡": 4474,
      "疣": 4475,
      "疤": 4476,
      "疥": 4477,
      "疪": 4478,
      "疫": 4479,
      "疬": 4480,
      "疮": 4481,
      "疯": 4482,
      "疱": 4483,
      "疲": 4484,
      "疳": 4485,
      "疴": 4486,
      "疵": 4487,
      "疸": 4488,
      "疹": 4489,
      "疻": 4490,
      "疼": 4491,
      "疽": 4492,
      "疾": 4493,
      "疿": 4494,
      "痀": 4495,
      "痂": 4496,
      "病": 4497,
      "症": 4498,
      "痈": 4499,
      "痉": 4500,
      "痊": 4501,
      "痌": 4502,
      "痍": 4503,
      "痒": 4504,
      "痔": 4505,
      "痕": 4506,
      "痘": 4507,
      "痛": 4508,
      "痞": 4509,
      "痠": 4510,
      "痢": 4511,
      "痣": 4512,
      "痤": 4513,
      "痦": 4514,
      "痧": 4515,
      "痨": 4516,
      "痪": 4517,
      "痫": 4518,
      "痰": 4519,
      "痱": 4520,
      "痲": 4521,
      "痳": 4522,
      "痴": 4523,
      "痹": 4524,
      "痺": 4525,
      "痼": 4526,
      "痿": 4527,
      "瘀": 4528,
      "瘁": 4529,
      "瘆": 4530,
      "瘔": 4531,
      "瘕": 4532,
      "瘖": 4533,
      "瘗": 4534,
      "瘘": 4535,
      "瘙": 4536,
      "瘛": 4537,
      "瘜": 4538,
      "瘝": 4539,
      "瘟": 4540,
      "瘠": 4541,
      "瘢": 4542,
      "瘤": 4543,
      "瘦": 4544,
      "瘩": 4545,
      "瘪": 4546,
      "瘫": 4547,
      "瘭": 4548,
      "瘰": 4549,
      "瘴": 4550,
      "瘸": 4551,
      "瘾": 4552,
      "瘿": 4553,
      "癀": 4554,
      "癃": 4555,
      "癌": 4556,
      "癎": 4557,
      "癔": 4558,
      "癖": 4559,
      "癜": 4560,
      "癞": 4561,
      "癣": 4562,
      "癫": 4563,
      "癯": 4564,
      "癸": 4565,
      "発": 4566,
      "登": 4567,
      "白": 4568,
      "百": 4569,
      "癿": 4570,
      "皁": 4571,
      "皂": 4572,
      "的": 4573,
      "皆": 4574,
      "皇": 4575,
      "皈": 4576,
      "皋": 4577,
      "皎": 4578,
      "皑": 4579,
      "皒": 4580,
      "皓": 4581,
      "皕": 4582,
      "皖": 4583,
      "皙": 4584,
      "皛": 4585,
      "皞": 4586,
      "皤": 4587,
      "皮": 4588,
      "皱": 4589,
      "皲": 4590,
      "皴": 4591,
      "皿": 4592,
      "盂": 4593,
      "盃": 4594,
      "盅": 4595,
      "盆": 4596,
      "盈": 4597,
      "益": 4598,
      "盍": 4599,
      "盎": 4600,
      "盏": 4601,
      "盐": 4602,
      "监": 4603,
      "盒": 4604,
      "盔": 4605,
      "盖": 4606,
      "盗": 4607,
      "盘": 4608,
      "盛": 4609,
      "盟": 4610,
      "盥": 4611,
      "目": 4612,
      "盯": 4613,
      "盰": 4614,
      "盱": 4615,
      "盲": 4616,
      "直": 4617,
      "相": 4618,
      "盹": 4619,
      "盼": 4620,
      "盾": 4621,
      "眀": 4622,
      "省": 4623,
      "眇": 4624,
      "眈": 4625,
      "眉": 4626,
      "眊": 4627,
      "看": 4628,
      "県": 4629,
      "眍": 4630,
      "眙": 4631,
      "眞": 4632,
      "真": 4633,
      "眠": 4634,
      "眦": 4635,
      "眨": 4636,
      "眩": 4637,
      "眬": 4638,
      "眯": 4639,
      "眶": 4640,
      "眷": 4641,
      "眸": 4642,
      "眺": 4643,
      "眼": 4644,
      "着": 4645,
      "睁": 4646,
      "睃": 4647,
      "睇": 4648,
      "睋": 4649,
      "睌": 4650,
      "睐": 4651,
      "睑": 4652,
      "睒": 4653,
      "睚": 4654,
      "睛": 4655,
      "睡": 4656,
      "睢": 4657,
      "督": 4658,
      "睥": 4659,
      "睦": 4660,
      "睨": 4661,
      "睪": 4662,
      "睫": 4663,
      "睬": 4664,
      "睭": 4665,
      "睹": 4666,
      "睽": 4667,
      "睾": 4668,
      "睿": 4669,
      "瞀": 4670,
      "瞄": 4671,
      "瞅": 4672,
      "瞉": 4673,
      "瞋": 4674,
      "瞌": 4675,
      "瞍": 4676,
      "瞎": 4677,
      "瞐": 4678,
      "瞑": 4679,
      "瞒": 4680,
      "瞓": 4681,
      "瞟": 4682,
      "瞠": 4683,
      "瞥": 4684,
      "瞧": 4685,
      "瞩": 4686,
      "瞪": 4687,
      "瞬": 4688,
      "瞭": 4689,
      "瞰": 4690,
      "瞳": 4691,
      "瞵": 4692,
      "瞻": 4693,
      "瞽": 4694,
      "瞾": 4695,
      "瞿": 4696,
      "矍": 4697,
      "矗": 4698,
      "矛": 4699,
      "矜": 4700,
      "矢": 4701,
      "矣": 4702,
      "知": 4703,
      "矩": 4704,
      "矫": 4705,
      "矬": 4706,
      "短": 4707,
      "矮": 4708,
      "石": 4709,
      "矶": 4710,
      "矸": 4711,
      "矽": 4712,
      "矾": 4713,
      "矿": 4714,
      "砀": 4715,
      "码": 4716,
      "砂": 4717,
      "砉": 4718,
      "砌": 4719,
      "砍": 4720,
      "砑": 4721,
      "砒": 4722,
      "研": 4723,
      "砖": 4724,
      "砘": 4725,
      "砙": 4726,
      "砚": 4727,
      "砜": 4728,
      "砝": 4729,
      "砞": 4730,
      "砟": 4731,
      "砣": 4732,
      "砥": 4733,
      "砦": 4734,
      "砧": 4735,
      "砬": 4736,
      "砭": 4737,
      "砰": 4738,
      "破": 4739,
      "砵": 4740,
      "砷": 4741,
      "砸": 4742,
      "砹": 4743,
      "砺": 4744,
      "砻": 4745,
      "砼": 4746,
      "砾": 4747,
      "础": 4748,
      "硅": 4749,
      "硇": 4750,
      "硌": 4751,
      "硎": 4752,
      "硐": 4753,
      "硒": 4754,
      "硕": 4755,
      "硖": 4756,
      "硗": 4757,
      "硝": 4758,
      "硪": 4759,
      "硫": 4760,
      "硬": 4761,
      "确": 4762,
      "硷": 4763,
      "硼": 4764,
      "碁": 4765,
      "碃": 4766,
      "碇": 4767,
      "碉": 4768,
      "碌": 4769,
      "碍": 4770,
      "碎": 4771,
      "碐": 4772,
      "碑": 4773,
      "碓": 4774,
      "碗": 4775,
      "碘": 4776,
      "碚": 4777,
      "碛": 4778,
      "碜": 4779,
      "碟": 4780,
      "碠": 4781,
      "碡": 4782,
      "碣": 4783,
      "碧": 4784,
      "碰": 4785,
      "碱": 4786,
      "碲": 4787,
      "碳": 4788,
      "碴": 4789,
      "碹": 4790,
      "碾": 4791,
      "磁": 4792,
      "磅": 4793,
      "磊": 4794,
      "磋": 4795,
      "磐": 4796,
      "磕": 4797,
      "磗": 4798,
      "磙": 4799,
      "磞": 4800,
      "磡": 4801,
      "磨": 4802,
      "磬": 4803,
      "磴": 4804,
      "磷": 4805,
      "磺": 4806,
      "礀": 4807,
      "礁": 4808,
      "礅": 4809,
      "礈": 4810,
      "礏": 4811,
      "礐": 4812,
      "礞": 4813,
      "礡": 4814,
      "礴": 4815,
      "礵": 4816,
      "示": 4817,
      "礻": 4818,
      "礼": 4819,
      "礽": 4820,
      "社": 4821,
      "祀": 4822,
      "祁": 4823,
      "祂": 4824,
      "祃": 4825,
      "祄": 4826,
      "祆": 4827,
      "祇": 4828,
      "祈": 4829,
      "祉": 4830,
      "祍": 4831,
      "祎": 4832,
      "祐": 4833,
      "祓": 4834,
      "祖": 4835,
      "祗": 4836,
      "祘": 4837,
      "祚": 4838,
      "祛": 4839,
      "祜": 4840,
      "祝": 4841,
      "神": 4842,
      "祟": 4843,
      "祠": 4844,
      "祢": 4845,
      "祤": 4846,
      "祥": 4847,
      "祧": 4848,
      "票": 4849,
      "祭": 4850,
      "祯": 4851,
      "祷": 4852,
      "祸": 4853,
      "祺": 4854,
      "祼": 4855,
      "祾": 4856,
      "禀": 4857,
      "禁": 4858,
      "禄": 4859,
      "禅": 4860,
      "福": 4861,
      "禒": 4862,
      "禤": 4863,
      "禧": 4864,
      "禳": 4865,
      "禹": 4866,
      "禺": 4867,
      "离": 4868,
      "禽": 4869,
      "禾": 4870,
      "秀": 4871,
      "私": 4872,
      "秂": 4873,
      "秃": 4874,
      "秆": 4875,
      "秉": 4876,
      "秋": 4877,
      "种": 4878,
      "秏": 4879,
      "科": 4880,
      "秒": 4881,
      "秕": 4882,
      "秘": 4883,
      "租": 4884,
      "秣": 4885,
      "秤": 4886,
      "秦": 4887,
      "秧": 4888,
      "秩": 4889,
      "秫": 4890,
      "秭": 4891,
      "积": 4892,
      "称": 4893,
      "秲": 4894,
      "秸": 4895,
      "移": 4896,
      "秽": 4897,
      "稀": 4898,
      "稂": 4899,
      "稃": 4900,
      "稊": 4901,
      "程": 4902,
      "稍": 4903,
      "税": 4904,
      "稔": 4905,
      "稗": 4906,
      "稚": 4907,
      "稜": 4908,
      "稞": 4909,
      "稠": 4910,
      "稣": 4911,
      "稭": 4912,
      "稳": 4913,
      "稷": 4914,
      "稹": 4915,
      "稻": 4916,
      "稼": 4917,
      "稽": 4918,
      "稿": 4919,
      "穂": 4920,
      "穆": 4921,
      "穇": 4922,
      "穏": 4923,
      "穗": 4924,
      "穰": 4925,
      "穴": 4926,
      "究": 4927,
      "穷": 4928,
      "穹": 4929,
      "空": 4930,
      "穿": 4931,
      "突": 4932,
      "窃": 4933,
      "窄": 4934,
      "窈": 4935,
      "窊": 4936,
      "窍": 4937,
      "窎": 4938,
      "窑": 4939,
      "窒": 4940,
      "窕": 4941,
      "窖": 4942,
      "窗": 4943,
      "窘": 4944,
      "窜": 4945,
      "窝": 4946,
      "窟": 4947,
      "窠": 4948,
      "窣": 4949,
      "窥": 4950,
      "窦": 4951,
      "窨": 4952,
      "窭": 4953,
      "窳": 4954,
      "窸": 4955,
      "窿": 4956,
      "立": 4957,
      "竖": 4958,
      "站": 4959,
      "竜": 4960,
      "竞": 4961,
      "竟": 4962,
      "章": 4963,
      "竣": 4964,
      "童": 4965,
      "竭": 4966,
      "端": 4967,
      "竰": 4968,
      "竹": 4969,
      "竺": 4970,
      "竽": 4971,
      "竿": 4972,
      "笀": 4973,
      "笃": 4974,
      "笄": 4975,
      "笆": 4976,
      "笈": 4977,
      "笋": 4978,
      "笏": 4979,
      "笑": 4980,
      "笓": 4981,
      "笔": 4982,
      "笕": 4983,
      "笙": 4984,
      "笛": 4985,
      "笞": 4986,
      "笠": 4987,
      "笤": 4988,
      "笥": 4989,
      "符": 4990,
      "笨": 4991,
      "笩": 4992,
      "笪": 4993,
      "笫": 4994,
      "第": 4995,
      "笮": 4996,
      "笳": 4997,
      "笹": 4998,
      "笺": 4999,
      "笼": 5000,
      "筅": 5001,
      "筇": 5002,
      "等": 5003,
      "筊": 5004,
      "筋": 5005,
      "筏": 5006,
      "筐": 5007,
      "筑": 5008,
      "筒": 5009,
      "答": 5010,
      "策": 5011,
      "筘": 5012,
      "筚": 5013,
      "筛": 5014,
      "筝": 5015,
      "筠": 5016,
      "筦": 5017,
      "筭": 5018,
      "筮": 5019,
      "筱": 5020,
      "筲": 5021,
      "筴": 5022,
      "筵": 5023,
      "筷": 5024,
      "筹": 5025,
      "签": 5026,
      "简": 5027,
      "箅": 5028,
      "箇": 5029,
      "箍": 5030,
      "箐": 5031,
      "箔": 5032,
      "箕": 5033,
      "算": 5034,
      "箘": 5035,
      "箜": 5036,
      "箝": 5037,
      "管": 5038,
      "箧": 5039,
      "箩": 5040,
      "箪": 5041,
      "箫": 5042,
      "箬": 5043,
      "箭": 5044,
      "箱": 5045,
      "箴": 5046,
      "箸": 5047,
      "篁": 5048,
      "篆": 5049,
      "篇": 5050,
      "篌": 5051,
      "篑": 5052,
      "篓": 5053,
      "篙": 5054,
      "篜": 5055,
      "篝": 5056,
      "篡": 5057,
      "篦": 5058,
      "篪": 5059,
      "篮": 5060,
      "篱": 5061,
      "篷": 5062,
      "篾": 5063,
      "簇": 5064,
      "簋": 5065,
      "簌": 5066,
      "簔": 5067,
      "簕": 5068,
      "簧": 5069,
      "簪": 5070,
      "簰": 5071,
      "簸": 5072,
      "簿": 5073,
      "籀": 5074,
      "籁": 5075,
      "籍": 5076,
      "籐": 5077,
      "籓": 5078,
      "籖": 5079,
      "籣": 5080,
      "米": 5081,
      "籴": 5082,
      "籹": 5083,
      "类": 5084,
      "籼": 5085,
      "籽": 5086,
      "粄": 5087,
      "粉": 5088,
      "粑": 5089,
      "粒": 5090,
      "粕": 5091,
      "粗": 5092,
      "粘": 5093,
      "粜": 5094,
      "粝": 5095,
      "粟": 5096,
      "粤": 5097,
      "粥": 5098,
      "粦": 5099,
      "粧": 5100,
      "粪": 5101,
      "粬": 5102,
      "粮": 5103,
      "粱": 5104,
      "粲": 5105,
      "粳": 5106,
      "粹": 5107,
      "粻": 5108,
      "粼": 5109,
      "粽": 5110,
      "精": 5111,
      "粿": 5112,
      "糁": 5113,
      "糅": 5114,
      "糇": 5115,
      "糊": 5116,
      "糌": 5117,
      "糍": 5118,
      "糒": 5119,
      "糕": 5120,
      "糖": 5121,
      "糗": 5122,
      "糙": 5123,
      "糜": 5124,
      "糟": 5125,
      "糠": 5126,
      "糨": 5127,
      "糬": 5128,
      "糯": 5129,
      "糸": 5130,
      "系": 5131,
      "紊": 5132,
      "素": 5133,
      "索": 5134,
      "紥": 5135,
      "紦": 5136,
      "紧": 5137,
      "紫": 5138,
      "累": 5139,
      "紾": 5140,
      "経": 5141,
      "絔": 5142,
      "絜": 5143,
      "絠": 5144,
      "絪": 5145,
      "絮": 5146,
      "絿": 5147,
      "綀": 5148,
      "綄": 5149,
      "続": 5150,
      "綦": 5151,
      "綪": 5152,
      "綮": 5153,
      "綶": 5154,
      "緁": 5155,
      "緈": 5156,
      "総": 5157,
      "緜": 5158,
      "緟": 5159,
      "縁": 5160,
      "縂": 5161,
      "縄": 5162,
      "縢": 5163,
      "縻": 5164,
      "繁": 5165,
      "繇": 5166,
      "繖": 5167,
      "繙": 5168,
      "繦": 5169,
      "纂": 5170,
      "纇": 5171,
      "纛": 5172,
      "纠": 5173,
      "纡": 5174,
      "红": 5175,
      "纣": 5176,
      "纤": 5177,
      "纥": 5178,
      "约": 5179,
      "级": 5180,
      "纨": 5181,
      "纪": 5182,
      "纫": 5183,
      "纬": 5184,
      "纭": 5185,
      "纮": 5186,
      "纯": 5187,
      "纰": 5188,
      "纱": 5189,
      "纲": 5190,
      "纳": 5191,
      "纵": 5192,
      "纶": 5193,
      "纷": 5194,
      "纸": 5195,
      "纹": 5196,
      "纺": 5197,
      "纻": 5198,
      "纽": 5199,
      "纾": 5200,
      "线": 5201,
      "绀": 5202,
      "绁": 5203,
      "绂": 5204,
      "练": 5205,
      "组": 5206,
      "绅": 5207,
      "细": 5208,
      "织": 5209,
      "终": 5210,
      "绉": 5211,
      "绊": 5212,
      "绌": 5213,
      "绍": 5214,
      "绎": 5215,
      "经": 5216,
      "绐": 5217,
      "绑": 5218,
      "绒": 5219,
      "结": 5220,
      "绔": 5221,
      "绕": 5222,
      "绗": 5223,
      "绘": 5224,
      "给": 5225,
      "绚": 5226,
      "绛": 5227,
      "络": 5228,
      "绝": 5229,
      "绞": 5230,
      "统": 5231,
      "绡": 5232,
      "绢": 5233,
      "绣": 5234,
      "绥": 5235,
      "绦": 5236,
      "继": 5237,
      "绨": 5238,
      "绩": 5239,
      "绪": 5240,
      "绫": 5241,
      "续": 5242,
      "绮": 5243,
      "绯": 5244,
      "绰": 5245,
      "绱": 5246,
      "绳": 5247,
      "维": 5248,
      "绵": 5249,
      "绶": 5250,
      "绷": 5251,
      "绸": 5252,
      "绺": 5253,
      "绻": 5254,
      "综": 5255,
      "绽": 5256,
      "绾": 5257,
      "绿": 5258,
      "缀": 5259,
      "缁": 5260,
      "缃": 5261,
      "缄": 5262,
      "缅": 5263,
      "缆": 5264,
      "缇": 5265,
      "缈": 5266,
      "缉": 5267,
      "缊": 5268,
      "缋": 5269,
      "缌": 5270,
      "缍": 5271,
      "缎": 5272,
      "缏": 5273,
      "缐": 5274,
      "缑": 5275,
      "缒": 5276,
      "缓": 5277,
      "缔": 5278,
      "缕": 5279,
      "编": 5280,
      "缗": 5281,
      "缘": 5282,
      "缙": 5283,
      "缚": 5284,
      "缛": 5285,
      "缜": 5286,
      "缝": 5287,
      "缞": 5288,
      "缟": 5289,
      "缠": 5290,
      "缡": 5291,
      "缢": 5292,
      "缣": 5293,
      "缤": 5294,
      "缥": 5295,
      "缦": 5296,
      "缧": 5297,
      "缨": 5298,
      "缩": 5299,
      "缪": 5300,
      "缫": 5301,
      "缬": 5302,
      "缭": 5303,
      "缮": 5304,
      "缯": 5305,
      "缰": 5306,
      "缱": 5307,
      "缲": 5308,
      "缳": 5309,
      "缴": 5310,
      "缵": 5311,
      "缶": 5312,
      "缷": 5313,
      "缸": 5314,
      "缹": 5315,
      "缺": 5316,
      "缼": 5317,
      "缿": 5318,
      "罂": 5319,
      "罃": 5320,
      "罄": 5321,
      "罅": 5322,
      "罇": 5323,
      "罉": 5324,
      "罋": 5325,
      "罍": 5326,
      "罏": 5327,
      "罐": 5328,
      "网": 5329,
      "罒": 5330,
      "罔": 5331,
      "罕": 5332,
      "罖": 5333,
      "罗": 5334,
      "罘": 5335,
      "罙": 5336,
      "罚": 5337,
      "罛": 5338,
      "罜": 5339,
      "罝": 5340,
      "罟": 5341,
      "罠": 5342,
      "罡": 5343,
      "罢": 5344,
      "罣": 5345,
      "罦": 5346,
      "罧": 5347,
      "罨": 5348,
      "罩": 5349,
      "罪": 5350,
      "罫": 5351,
      "罬": 5352,
      "罭": 5353,
      "置": 5354,
      "罯": 5355,
      "署": 5356,
      "罴": 5357,
      "罸": 5358,
      "罹": 5359,
      "罻": 5360,
      "罼": 5361,
      "罽": 5362,
      "罿": 5363,
      "羀": 5364,
      "羁": 5365,
      "羂": 5366,
      "羇": 5367,
      "羉": 5368,
      "羊": 5369,
      "羌": 5370,
      "美": 5371,
      "羏": 5372,
      "羑": 5373,
      "羒": 5374,
      "羓": 5375,
      "羔": 5376,
      "羕": 5377,
      "羖": 5378,
      "羗": 5379,
      "羘": 5380,
      "羙": 5381,
      "羚": 5382,
      "羜": 5383,
      "羝": 5384,
      "羞": 5385,
      "羟": 5386,
      "羠": 5387,
      "羡": 5388,
      "羣": 5389,
      "群": 5390,
      "羧": 5391,
      "羬": 5392,
      "羭": 5393,
      "羮": 5394,
      "羯": 5395,
      "羰": 5396,
      "羱": 5397,
      "羲": 5398,
      "羳": 5399,
      "羴": 5400,
      "羶": 5401,
      "羷": 5402,
      "羸": 5403,
      "羹": 5404,
      "羼": 5405,
      "羽": 5406,
      "羾": 5407,
      "羿": 5408,
      "翀": 5409,
      "翁": 5410,
      "翂": 5411,
      "翃": 5412,
      "翄": 5413,
      "翅": 5414,
      "翇": 5415,
      "翈": 5416,
      "翊": 5417,
      "翋": 5418,
      "翌": 5419,
      "翍": 5420,
      "翎": 5421,
      "翏": 5422,
      "翐": 5423,
      "翔": 5424,
      "翕": 5425,
      "翘": 5426,
      "翙": 5427,
      "翚": 5428,
      "翛": 5429,
      "翜": 5430,
      "翞": 5431,
      "翟": 5432,
      "翠": 5433,
      "翡": 5434,
      "翣": 5435,
      "翤": 5436,
      "翥": 5437,
      "翦": 5438,
      "翧": 5439,
      "翩": 5440,
      "翪": 5441,
      "翬": 5442,
      "翮": 5443,
      "翯": 5444,
      "翰": 5445,
      "翱": 5446,
      "翳": 5447,
      "翴": 5448,
      "翵": 5449,
      "翺": 5450,
      "翻": 5451,
      "翼": 5452,
      "耀": 5453,
      "老": 5454,
      "考": 5455,
      "耄": 5456,
      "者": 5457,
      "耆": 5458,
      "耋": 5459,
      "而": 5460,
      "耍": 5461,
      "耐": 5462,
      "耒": 5463,
      "耕": 5464,
      "耗": 5465,
      "耘": 5466,
      "耙": 5467,
      "耞": 5468,
      "耥": 5469,
      "耦": 5470,
      "耧": 5471,
      "耨": 5472,
      "耳": 5473,
      "耵": 5474,
      "耶": 5475,
      "耷": 5476,
      "耸": 5477,
      "耻": 5478,
      "耽": 5479,
      "耿": 5480,
      "聂": 5481,
      "聃": 5482,
      "聆": 5483,
      "聊": 5484,
      "聋": 5485,
      "职": 5486,
      "聍": 5487,
      "聒": 5488,
      "联": 5489,
      "聘": 5490,
      "聚": 5491,
      "聡": 5492,
      "聩": 5493,
      "聪": 5494,
      "聱": 5495,
      "聼": 5496,
      "聿": 5497,
      "肀": 5498,
      "肃": 5499,
      "肄": 5500,
      "肆": 5501,
      "肇": 5502,
      "肉": 5503,
      "肋": 5504,
      "肌": 5505,
      "肏": 5506,
      "肓": 5507,
      "肖": 5508,
      "肘": 5509,
      "肚": 5510,
      "肛": 5511,
      "肜": 5512,
      "肝": 5513,
      "肟": 5514,
      "肠": 5515,
      "股": 5516,
      "肢": 5517,
      "肤": 5518,
      "肥": 5519,
      "肩": 5520,
      "肪": 5521,
      "肫": 5522,
      "肮": 5523,
      "肯": 5524,
      "肱": 5525,
      "育": 5526,
      "肴": 5527,
      "肸": 5528,
      "肺": 5529,
      "肼": 5530,
      "肽": 5531,
      "肾": 5532,
      "肿": 5533,
      "胀": 5534,
      "胁": 5535,
      "胂": 5536,
      "胃": 5537,
      "胄": 5538,
      "胆": 5539,
      "背": 5540,
      "胍": 5541,
      "胎": 5542,
      "胖": 5543,
      "胗": 5544,
      "胙": 5545,
      "胚": 5546,
      "胛": 5547,
      "胜": 5548,
      "胝": 5549,
      "胞": 5550,
      "胠": 5551,
      "胡": 5552,
      "胣": 5553,
      "胤": 5554,
      "胥": 5555,
      "胦": 5556,
      "胧": 5557,
      "胨": 5558,
      "胩": 5559,
      "胪": 5560,
      "胫": 5561,
      "胬": 5562,
      "胭": 5563,
      "胯": 5564,
      "胰": 5565,
      "胱": 5566,
      "胳": 5567,
      "胴": 5568,
      "胶": 5569,
      "胸": 5570,
      "胺": 5571,
      "胼": 5572,
      "能": 5573,
      "脂": 5574,
      "脆": 5575,
      "脇": 5576,
      "脉": 5577,
      "脊": 5578,
      "脍": 5579,
      "脏": 5580,
      "脐": 5581,
      "脑": 5582,
      "脒": 5583,
      "脓": 5584,
      "脔": 5585,
      "脖": 5586,
      "脘": 5587,
      "脚": 5588,
      "脢": 5589,
      "脩": 5590,
      "脯": 5591,
      "脱": 5592,
      "脲": 5593,
      "脷": 5594,
      "脸": 5595,
      "脾": 5596,
      "腆": 5597,
      "腈": 5598,
      "腊": 5599,
      "腋": 5600,
      "腌": 5601,
      "腍": 5602,
      "腐": 5603,
      "腑": 5604,
      "腓": 5605,
      "腔": 5606,
      "腕": 5607,
      "腗": 5608,
      "腘": 5609,
      "腙": 5610,
      "腚": 5611,
      "腠": 5612,
      "腥": 5613,
      "腧": 5614,
      "腩": 5615,
      "腭": 5616,
      "腮": 5617,
      "腰": 5618,
      "腱": 5619,
      "腴": 5620,
      "腹": 5621,
      "腺": 5622,
      "腻": 5623,
      "腼": 5624,
      "腾": 5625,
      "腿": 5626,
      "膀": 5627,
      "膂": 5628,
      "膈": 5629,
      "膊": 5630,
      "膍": 5631,
      "膏": 5632,
      "膑": 5633,
      "膘": 5634,
      "膛": 5635,
      "膜": 5636,
      "膝": 5637,
      "膦": 5638,
      "膨": 5639,
      "膮": 5640,
      "膳": 5641,
      "膹": 5642,
      "膺": 5643,
      "膻": 5644,
      "臀": 5645,
      "臁": 5646,
      "臂": 5647,
      "臃": 5648,
      "臆": 5649,
      "臊": 5650,
      "臌": 5651,
      "臓": 5652,
      "臜": 5653,
      "臣": 5654,
      "臧": 5655,
      "臩": 5656,
      "自": 5657,
      "臫": 5658,
      "臬": 5659,
      "臭": 5660,
      "至": 5661,
      "致": 5662,
      "臷": 5663,
      "臸": 5664,
      "臻": 5665,
      "臼": 5666,
      "臾": 5667,
      "舀": 5668,
      "舂": 5669,
      "舄": 5670,
      "舅": 5671,
      "舆": 5672,
      "舌": 5673,
      "舍": 5674,
      "舎": 5675,
      "舐": 5676,
      "舒": 5677,
      "舔": 5678,
      "舖": 5679,
      "舘": 5680,
      "舛": 5681,
      "舜": 5682,
      "舞": 5683,
      "舟": 5684,
      "舡": 5685,
      "舢": 5686,
      "舣": 5687,
      "舨": 5688,
      "航": 5689,
      "舫": 5690,
      "般": 5691,
      "舭": 5692,
      "舯": 5693,
      "舰": 5694,
      "舱": 5695,
      "舳": 5696,
      "舴": 5697,
      "舵": 5698,
      "舶": 5699,
      "舷": 5700,
      "舸": 5701,
      "船": 5702,
      "舺": 5703,
      "舾": 5704,
      "艇": 5705,
      "艉": 5706,
      "艋": 5707,
      "艏": 5708,
      "艘": 5709,
      "艚": 5710,
      "艮": 5711,
      "良": 5712,
      "艰": 5713,
      "色": 5714,
      "艳": 5715,
      "艹": 5716,
      "艺": 5717,
      "艽": 5718,
      "艾": 5719,
      "艿": 5720,
      "芀": 5721,
      "节": 5722,
      "芃": 5723,
      "芈": 5724,
      "芊": 5725,
      "芋": 5726,
      "芍": 5727,
      "芎": 5728,
      "芐": 5729,
      "芒": 5730,
      "芘": 5731,
      "芙": 5732,
      "芜": 5733,
      "芝": 5734,
      "芠": 5735,
      "芡": 5736,
      "芣": 5737,
      "芥": 5738,
      "芦": 5739,
      "芨": 5740,
      "芩": 5741,
      "芪": 5742,
      "芫": 5743,
      "芬": 5744,
      "芭": 5745,
      "芮": 5746,
      "芯": 5747,
      "花": 5748,
      "芳": 5749,
      "芴": 5750,
      "芷": 5751,
      "芸": 5752,
      "芹": 5753,
      "芽": 5754,
      "芾": 5755,
      "苁": 5756,
      "苄": 5757,
      "苇": 5758,
      "苈": 5759,
      "苊": 5760,
      "苋": 5761,
      "苍": 5762,
      "苎": 5763,
      "苏": 5764,
      "苑": 5765,
      "苒": 5766,
      "苓": 5767,
      "苔": 5768,
      "苕": 5769,
      "苖": 5770,
      "苗": 5771,
      "苚": 5772,
      "苛": 5773,
      "苜": 5774,
      "苝": 5775,
      "苞": 5776,
      "苟": 5777,
      "苡": 5778,
      "苣": 5779,
      "苤": 5780,
      "若": 5781,
      "苦": 5782,
      "苧": 5783,
      "苩": 5784,
      "苫": 5785,
      "苯": 5786,
      "英": 5787,
      "苴": 5788,
      "苶": 5789,
      "苷": 5790,
      "苹": 5791,
      "苺": 5792,
      "苻": 5793,
      "苾": 5794,
      "茀": 5795,
      "茁": 5796,
      "茂": 5797,
      "范": 5798,
      "茄": 5799,
      "茅": 5800,
      "茇": 5801,
      "茈": 5802,
      "茉": 5803,
      "茋": 5804,
      "茌": 5805,
      "茍": 5806,
      "茎": 5807,
      "茏": 5808,
      "茑": 5809,
      "茔": 5810,
      "茕": 5811,
      "茗": 5812,
      "茚": 5813,
      "茛": 5814,
      "茜": 5815,
      "茧": 5816,
      "茨": 5817,
      "茫": 5818,
      "茬": 5819,
      "茭": 5820,
      "茯": 5821,
      "茱": 5822,
      "茴": 5823,
      "茵": 5824,
      "茶": 5825,
      "茸": 5826,
      "茹": 5827,
      "茼": 5828,
      "荀": 5829,
      "荃": 5830,
      "荆": 5831,
      "荇": 5832,
      "草": 5833,
      "荏": 5834,
      "荐": 5835,
      "荑": 5836,
      "荒": 5837,
      "荔": 5838,
      "荖": 5839,
      "荚": 5840,
      "荛": 5841,
      "荜": 5842,
      "荞": 5843,
      "荟": 5844,
      "荠": 5845,
      "荡": 5846,
      "荣": 5847,
      "荤": 5848,
      "荥": 5849,
      "荦": 5850,
      "荧": 5851,
      "荨": 5852,
      "荪": 5853,
      "荫": 5854,
      "荬": 5855,
      "荭": 5856,
      "药": 5857,
      "荷": 5858,
      "荸": 5859,
      "荻": 5860,
      "荼": 5861,
      "荽": 5862,
      "荾": 5863,
      "莂": 5864,
      "莅": 5865,
      "莆": 5866,
      "莈": 5867,
      "莉": 5868,
      "莎": 5869,
      "莒": 5870,
      "莓": 5871,
      "莘": 5872,
      "莙": 5873,
      "莛": 5874,
      "莜": 5875,
      "莝": 5876,
      "莞": 5877,
      "莠": 5878,
      "莨": 5879,
      "莪": 5880,
      "莫": 5881,
      "莰": 5882,
      "莱": 5883,
      "莲": 5884,
      "莳": 5885,
      "莴": 5886,
      "莶": 5887,
      "获": 5888,
      "莸": 5889,
      "莹": 5890,
      "莺": 5891,
      "莼": 5892,
      "莽": 5893,
      "莿": 5894,
      "菀": 5895,
      "菁": 5896,
      "菂": 5897,
      "菅": 5898,
      "菇": 5899,
      "菈": 5900,
      "菊": 5901,
      "菋": 5902,
      "菌": 5903,
      "菏": 5904,
      "菑": 5905,
      "菓": 5906,
      "菔": 5907,
      "菖": 5908,
      "菘": 5909,
      "菙": 5910,
      "菜": 5911,
      "菝": 5912,
      "菟": 5913,
      "菠": 5914,
      "菡": 5915,
      "菢": 5916,
      "菥": 5917,
      "菩": 5918,
      "菪": 5919,
      "菫": 5920,
      "菰": 5921,
      "菱": 5922,
      "菲": 5923,
      "菸": 5924,
      "菽": 5925,
      "菾": 5926,
      "萁": 5927,
      "萂": 5928,
      "萃": 5929,
      "萄": 5930,
      "萆": 5931,
      "萋": 5932,
      "萌": 5933,
      "萍": 5934,
      "萎": 5935,
      "萏": 5936,
      "萘": 5937,
      "萚": 5938,
      "萜": 5939,
      "萝": 5940,
      "萞": 5941,
      "萣": 5942,
      "萤": 5943,
      "营": 5944,
      "萦": 5945,
      "萧": 5946,
      "萨": 5947,
      "萱": 5948,
      "萸": 5949,
      "萼": 5950,
      "落": 5951,
      "葆": 5952,
      "葇": 5953,
      "葎": 5954,
      "葑": 5955,
      "葖": 5956,
      "著": 5957,
      "葙": 5958,
      "葚": 5959,
      "葛": 5960,
      "葜": 5961,
      "葡": 5962,
      "葢": 5963,
      "董": 5964,
      "葩": 5965,
      "葫": 5966,
      "葬": 5967,
      "葭": 5968,
      "葰": 5969,
      "葱": 5970,
      "葳": 5971,
      "葵": 5972,
      "葶": 5973,
      "葺": 5974,
      "葽": 5975,
      "蒂": 5976,
      "蒋": 5977,
      "蒌": 5978,
      "蒎": 5979,
      "蒐": 5980,
      "蒗": 5981,
      "蒙": 5982,
      "蒜": 5983,
      "蒟": 5984,
      "蒡": 5985,
      "蒥": 5986,
      "蒦": 5987,
      "蒨": 5988,
      "蒭": 5989,
      "蒯": 5990,
      "蒲": 5991,
      "蒴": 5992,
      "蒸": 5993,
      "蒹": 5994,
      "蒺": 5995,
      "蒻": 5996,
      "蒽": 5997,
      "蒾": 5998,
      "蒿": 5999,
      "蓁": 6000,
      "蓂": 6001,
      "蓄": 6002,
      "蓇": 6003,
      "蓉": 6004,
      "蓊": 6005,
      "蓍": 6006,
      "蓐": 6007,
      "蓑": 6008,
      "蓓": 6009,
      "蓖": 6010,
      "蓚": 6011,
      "蓝": 6012,
      "蓟": 6013,
      "蓠": 6014,
      "蓣": 6015,
      "蓥": 6016,
      "蓦": 6017,
      "蓬": 6018,
      "蓼": 6019,
      "蓿": 6020,
      "蔂": 6021,
      "蔌": 6022,
      "蔑": 6023,
      "蔓": 6024,
      "蔗": 6025,
      "蔘": 6026,
      "蔚": 6027,
      "蔟": 6028,
      "蔡": 6029,
      "蔩": 6030,
      "蔪": 6031,
      "蔫": 6032,
      "蔬": 6033,
      "蔯": 6034,
      "蔴": 6035,
      "蔵": 6036,
      "蔷": 6037,
      "蔸": 6038,
      "蔹": 6039,
      "蔺": 6040,
      "蔻": 6041,
      "蔼": 6042,
      "蔽": 6043,
      "蕃": 6044,
      "蕈": 6045,
      "蕉": 6046,
      "蕊": 6047,
      "蕌": 6048,
      "蕖": 6049,
      "蕙": 6050,
      "蕞": 6051,
      "蕤": 6052,
      "蕨": 6053,
      "蕲": 6054,
      "蕴": 6055,
      "蕹": 6056,
      "蕺": 6057,
      "蕻": 6058,
      "蕾": 6059,
      "薁": 6060,
      "薄": 6061,
      "薅": 6062,
      "薇": 6063,
      "薏": 6064,
      "薗": 6065,
      "薚": 6066,
      "薛": 6067,
      "薜": 6068,
      "薠": 6069,
      "薤": 6070,
      "薪": 6071,
      "薮": 6072,
      "薯": 6073,
      "薰": 6074,
      "薳": 6075,
      "薷": 6076,
      "薸": 6077,
      "薹": 6078,
      "薾": 6079,
      "藁": 6080,
      "藉": 6081,
      "藏": 6082,
      "藐": 6083,
      "藓": 6084,
      "藕": 6085,
      "藘": 6086,
      "藜": 6087,
      "藠": 6088,
      "藤": 6089,
      "藦": 6090,
      "藨": 6091,
      "藩": 6092,
      "藷": 6093,
      "藻": 6094,
      "藿": 6095,
      "蘅": 6096,
      "蘑": 6097,
      "蘖": 6098,
      "蘗": 6099,
      "蘧": 6100,
      "蘩": 6101,
      "蘸": 6102,
      "蘼": 6103,
      "虎": 6104,
      "虏": 6105,
      "虐": 6106,
      "虑": 6107,
      "虓": 6108,
      "虔": 6109,
      "虚": 6110,
      "虞": 6111,
      "虢": 6112,
      "虫": 6113,
      "虬": 6114,
      "虱": 6115,
      "虷": 6116,
      "虹": 6117,
      "虺": 6118,
      "虻": 6119,
      "虼": 6120,
      "虽": 6121,
      "虾": 6122,
      "蚀": 6123,
      "蚁": 6124,
      "蚂": 6125,
      "蚈": 6126,
      "蚊": 6127,
      "蚋": 6128,
      "蚌": 6129,
      "蚍": 6130,
      "蚓": 6131,
      "蚕": 6132,
      "蚜": 6133,
      "蚝": 6134,
      "蚣": 6135,
      "蚤": 6136,
      "蚧": 6137,
      "蚩": 6138,
      "蚪": 6139,
      "蚬": 6140,
      "蚯": 6141,
      "蚰": 6142,
      "蚱": 6143,
      "蚴": 6144,
      "蚵": 6145,
      "蚶": 6146,
      "蚺": 6147,
      "蛀": 6148,
      "蛄": 6149,
      "蛆": 6150,
      "蛇": 6151,
      "蛉": 6152,
      "蛊": 6153,
      "蛋": 6154,
      "蛎": 6155,
      "蛏": 6156,
      "蛐": 6157,
      "蛔": 6158,
      "蛙": 6159,
      "蛛": 6160,
      "蛞": 6161,
      "蛟": 6162,
      "蛤": 6163,
      "蛧": 6164,
      "蛩": 6165,
      "蛫": 6166,
      "蛭": 6167,
      "蛮": 6168,
      "蛰": 6169,
      "蛱": 6170,
      "蛲": 6171,
      "蛳": 6172,
      "蛴": 6173,
      "蛸": 6174,
      "蛹": 6175,
      "蛾": 6176,
      "蜀": 6177,
      "蜂": 6178,
      "蜃": 6179,
      "蜇": 6180,
      "蜈": 6181,
      "蜉": 6182,
      "蜊": 6183,
      "蜍": 6184,
      "蜒": 6185,
      "蜓": 6186,
      "蜕": 6187,
      "蜗": 6188,
      "蜘": 6189,
      "蜚": 6190,
      "蜜": 6191,
      "蜞": 6192,
      "蜡": 6193,
      "蜢": 6194,
      "蜣": 6195,
      "蜥": 6196,
      "蜮": 6197,
      "蜱": 6198,
      "蜴": 6199,
      "蜷": 6200,
      "蜻": 6201,
      "蜿": 6202,
      "蝀": 6203,
      "蝇": 6204,
      "蝈": 6205,
      "蝉": 6206,
      "蝌": 6207,
      "蝍": 6208,
      "蝎": 6209,
      "蝓": 6210,
      "蝗": 6211,
      "蝘": 6212,
      "蝙": 6213,
      "蝠": 6214,
      "蝣": 6215,
      "蝥": 6216,
      "蝨": 6217,
      "蝮": 6218,
      "蝰": 6219,
      "蝴": 6220,
      "蝶": 6221,
      "蝻": 6222,
      "蝼": 6223,
      "蝽": 6224,
      "蝾": 6225,
      "螂": 6226,
      "螃": 6227,
      "螅": 6228,
      "螈": 6229,
      "螉": 6230,
      "螋": 6231,
      "融": 6232,
      "螚": 6233,
      "螟": 6234,
      "螨": 6235,
      "螫": 6236,
      "螬": 6237,
      "螭": 6238,
      "螯": 6239,
      "螲": 6240,
      "螳": 6241,
      "螵": 6242,
      "螺": 6243,
      "螽": 6244,
      "螾": 6245,
      "蟀": 6246,
      "蟆": 6247,
      "蟊": 6248,
      "蟋": 6249,
      "蟑": 6250,
      "蟒": 6251,
      "蟓": 6252,
      "蟛": 6253,
      "蟠": 6254,
      "蟥": 6255,
      "蟩": 6256,
      "蟮": 6257,
      "蟳": 6258,
      "蟷": 6259,
      "蟹": 6260,
      "蟾": 6261,
      "蠃": 6262,
      "蠊": 6263,
      "蠋": 6264,
      "蠌": 6265,
      "蠓": 6266,
      "蠔": 6267,
      "蠕": 6268,
      "蠖": 6269,
      "蠙": 6270,
      "蠝": 6271,
      "蠡": 6272,
      "蠢": 6273,
      "蠲": 6274,
      "蠵": 6275,
      "蠹": 6276,
      "蠼": 6277,
      "血": 6278,
      "衃": 6279,
      "衄": 6280,
      "衅": 6281,
      "衊": 6282,
      "行": 6283,
      "衍": 6284,
      "衎": 6285,
      "衔": 6286,
      "衖": 6287,
      "街": 6288,
      "衙": 6289,
      "衞": 6290,
      "衠": 6291,
      "衡": 6292,
      "衢": 6293,
      "衣": 6294,
      "补": 6295,
      "衧": 6296,
      "表": 6297,
      "衩": 6298,
      "衪": 6299,
      "衫": 6300,
      "衬": 6301,
      "衮": 6302,
      "衯": 6303,
      "衰": 6304,
      "衲": 6305,
      "衷": 6306,
      "衽": 6307,
      "衾": 6308,
      "衿": 6309,
      "袀": 6310,
      "袁": 6311,
      "袂": 6312,
      "袄": 6313,
      "袅": 6314,
      "袈": 6315,
      "袋": 6316,
      "袍": 6317,
      "袐": 6318,
      "袒": 6319,
      "袓": 6320,
      "袖": 6321,
      "袗": 6322,
      "袛": 6323,
      "袜": 6324,
      "袢": 6325,
      "袤": 6326,
      "袪": 6327,
      "被": 6328,
      "袭": 6329,
      "袮": 6330,
      "袱": 6331,
      "袹": 6332,
      "袼": 6333,
      "袾": 6334,
      "裁": 6335,
      "裂": 6336,
      "装": 6337,
      "裆": 6338,
      "裇": 6339,
      "裉": 6340,
      "裑": 6341,
      "裒": 6342,
      "裔": 6343,
      "裕": 6344,
      "裘": 6345,
      "裙": 6346,
      "裟": 6347,
      "裢": 6348,
      "裤": 6349,
      "裥": 6350,
      "裦": 6351,
      "裨": 6352,
      "裰": 6353,
      "裱": 6354,
      "裳": 6355,
      "裴": 6356,
      "裸": 6357,
      "裹": 6358,
      "裾": 6359,
      "褂": 6360,
      "褆": 6361,
      "褉": 6362,
      "褊": 6363,
      "褐": 6364,
      "褒": 6365,
      "褓": 6366,
      "褔": 6367,
      "褚": 6368,
      "褛": 6369,
      "褡": 6370,
      "褥": 6371,
      "褦": 6372,
      "褪": 6373,
      "褫": 6374,
      "褴": 6375,
      "褶": 6376,
      "褼": 6377,
      "襁": 6378,
      "襃": 6379,
      "襄": 6380,
      "襌": 6381,
      "襞": 6382,
      "襟": 6383,
      "襦": 6384,
      "襫": 6385,
      "襭": 6386,
      "襱": 6387,
      "襻": 6388,
      "襼": 6389,
      "西": 6390,
      "要": 6391,
      "覂": 6392,
      "覃": 6393,
      "覆": 6394,
      "覈": 6395,
      "覗": 6396,
      "覚": 6397,
      "覧": 6398,
      "见": 6399,
      "观": 6400,
      "规": 6401,
      "觅": 6402,
      "视": 6403,
      "览": 6404,
      "觉": 6405,
      "觊": 6406,
      "觋": 6407,
      "觌": 6408,
      "觎": 6409,
      "觏": 6410,
      "觐": 6411,
      "觑": 6412,
      "角": 6413,
      "觔": 6414,
      "觚": 6415,
      "觝": 6416,
      "觞": 6417,
      "解": 6418,
      "觥": 6419,
      "触": 6420,
      "觨": 6421,
      "觫": 6422,
      "觳": 6423,
      "言": 6424,
      "訇": 6425,
      "訉": 6426,
      "訏": 6427,
      "訚": 6428,
      "訳": 6429,
      "訽": 6430,
      "訾": 6431,
      "訿": 6432,
      "詈": 6433,
      "詤": 6434,
      "詴": 6435,
      "詶": 6436,
      "詹": 6437,
      "誀": 6438,
      "誉": 6439,
      "誊": 6440,
      "誏": 6441,
      "誓": 6442,
      "誔": 6443,
      "誮": 6444,
      "誽": 6445,
      "諐": 6446,
      "諟": 6447,
      "諲": 6448,
      "諴": 6449,
      "謇": 6450,
      "謓": 6451,
      "謢": 6452,
      "謦": 6453,
      "謶": 6454,
      "譝": 6455,
      "警": 6456,
      "譬": 6457,
      "譮": 6458,
      "譲": 6459,
      "讐": 6460,
      "讟": 6461,
      "讠": 6462,
      "计": 6463,
      "订": 6464,
      "讣": 6465,
      "认": 6466,
      "讥": 6467,
      "讦": 6468,
      "讧": 6469,
      "讨": 6470,
      "让": 6471,
      "讪": 6472,
      "讫": 6473,
      "讬": 6474,
      "训": 6475,
      "议": 6476,
      "讯": 6477,
      "记": 6478,
      "讱": 6479,
      "讲": 6480,
      "讳": 6481,
      "讴": 6482,
      "讵": 6483,
      "讶": 6484,
      "讷": 6485,
      "许": 6486,
      "讹": 6487,
      "论": 6488,
      "讼": 6489,
      "讽": 6490,
      "设": 6491,
      "访": 6492,
      "诀": 6493,
      "证": 6494,
      "诂": 6495,
      "诃": 6496,
      "评": 6497,
      "诅": 6498,
      "识": 6499,
      "诈": 6500,
      "诉": 6501,
      "诊": 6502,
      "诋": 6503,
      "诌": 6504,
      "词": 6505,
      "诎": 6506,
      "诏": 6507,
      "译": 6508,
      "诒": 6509,
      "诓": 6510,
      "诔": 6511,
      "试": 6512,
      "诗": 6513,
      "诘": 6514,
      "诙": 6515,
      "诚": 6516,
      "诛": 6517,
      "诜": 6518,
      "话": 6519,
      "诞": 6520,
      "诟": 6521,
      "诠": 6522,
      "诡": 6523,
      "询": 6524,
      "诣": 6525,
      "诤": 6526,
      "该": 6527,
      "详": 6528,
      "诧": 6529,
      "诨": 6530,
      "诩": 6531,
      "诪": 6532,
      "诫": 6533,
      "诬": 6534,
      "语": 6535,
      "诮": 6536,
      "误": 6537,
      "诰": 6538,
      "诱": 6539,
      "诲": 6540,
      "诳": 6541,
      "说": 6542,
      "诵": 6543,
      "诶": 6544,
      "请": 6545,
      "诸": 6546,
      "诺": 6547,
      "读": 6548,
      "诼": 6549,
      "诽": 6550,
      "课": 6551,
      "诿": 6552,
      "谀": 6553,
      "谁": 6554,
      "谂": 6555,
      "调": 6556,
      "谄": 6557,
      "谅": 6558,
      "谆": 6559,
      "谈": 6560,
      "谊": 6561,
      "谋": 6562,
      "谌": 6563,
      "谍": 6564,
      "谎": 6565,
      "谏": 6566,
      "谐": 6567,
      "谑": 6568,
      "谒": 6569,
      "谓": 6570,
      "谔": 6571,
      "谕": 6572,
      "谖": 6573,
      "谗": 6574,
      "谘": 6575,
      "谙": 6576,
      "谚": 6577,
      "谛": 6578,
      "谜": 6579,
      "谟": 6580,
      "谡": 6581,
      "谢": 6582,
      "谣": 6583,
      "谤": 6584,
      "谥": 6585,
      "谦": 6586,
      "谧": 6587,
      "谨": 6588,
      "谩": 6589,
      "谪": 6590,
      "谬": 6591,
      "谭": 6592,
      "谮": 6593,
      "谯": 6594,
      "谰": 6595,
      "谱": 6596,
      "谲": 6597,
      "谳": 6598,
      "谴": 6599,
      "谵": 6600,
      "谶": 6601,
      "谷": 6602,
      "豁": 6603,
      "豃": 6604,
      "豆": 6605,
      "豇": 6606,
      "豉": 6607,
      "豊": 6608,
      "豋": 6609,
      "豌": 6610,
      "豔": 6611,
      "豕": 6612,
      "豚": 6613,
      "象": 6614,
      "豢": 6615,
      "豨": 6616,
      "豪": 6617,
      "豫": 6618,
      "豸": 6619,
      "豹": 6620,
      "豺": 6621,
      "貂": 6622,
      "貅": 6623,
      "貉": 6624,
      "貌": 6625,
      "貎": 6626,
      "貐": 6627,
      "貔": 6628,
      "貘": 6629,
      "貭": 6630,
      "賥": 6631,
      "賸": 6632,
      "贝": 6633,
      "贞": 6634,
      "负": 6635,
      "贠": 6636,
      "贡": 6637,
      "财": 6638,
      "责": 6639,
      "贤": 6640,
      "败": 6641,
      "账": 6642,
      "货": 6643,
      "质": 6644,
      "贩": 6645,
      "贪": 6646,
      "贫": 6647,
      "贬": 6648,
      "购": 6649,
      "贮": 6650,
      "贯": 6651,
      "贰": 6652,
      "贱": 6653,
      "贲": 6654,
      "贴": 6655,
      "贵": 6656,
      "贷": 6657,
      "贸": 6658,
      "费": 6659,
      "贺": 6660,
      "贻": 6661,
      "贼": 6662,
      "贽": 6663,
      "贾": 6664,
      "贿": 6665,
      "赀": 6666,
      "赁": 6667,
      "赂": 6668,
      "赃": 6669,
      "资": 6670,
      "赅": 6671,
      "赈": 6672,
      "赉": 6673,
      "赊": 6674,
      "赋": 6675,
      "赌": 6676,
      "赍": 6677,
      "赎": 6678,
      "赏": 6679,
      "赐": 6680,
      "赑": 6681,
      "赒": 6682,
      "赓": 6683,
      "赔": 6684,
      "赕": 6685,
      "赖": 6686,
      "赗": 6687,
      "赘": 6688,
      "赙": 6689,
      "赚": 6690,
      "赛": 6691,
      "赜": 6692,
      "赝": 6693,
      "赞": 6694,
      "赟": 6695,
      "赠": 6696,
      "赡": 6697,
      "赢": 6698,
      "赣": 6699,
      "赤": 6700,
      "赦": 6701,
      "赧": 6702,
      "赫": 6703,
      "赭": 6704,
      "走": 6705,
      "赱": 6706,
      "赳": 6707,
      "赴": 6708,
      "赵": 6709,
      "赶": 6710,
      "起": 6711,
      "赸": 6712,
      "趁": 6713,
      "趄": 6714,
      "超": 6715,
      "越": 6716,
      "趋": 6717,
      "趎": 6718,
      "趔": 6719,
      "趟": 6720,
      "趣": 6721,
      "趧": 6722,
      "趮": 6723,
      "足": 6724,
      "趴": 6725,
      "趵": 6726,
      "趸": 6727,
      "趺": 6728,
      "趼": 6729,
      "趾": 6730,
      "趿": 6731,
      "跃": 6732,
      "跄": 6733,
      "跆": 6734,
      "跋": 6735,
      "跌": 6736,
      "跎": 6737,
      "跏": 6738,
      "跑": 6739,
      "跖": 6740,
      "跗": 6741,
      "跚": 6742,
      "跛": 6743,
      "距": 6744,
      "跞": 6745,
      "跟": 6746,
      "跤": 6747,
      "跥": 6748,
      "跨": 6749,
      "跩": 6750,
      "跪": 6751,
      "跬": 6752,
      "路": 6753,
      "跳": 6754,
      "践": 6755,
      "跶": 6756,
      "跷": 6757,
      "跸": 6758,
      "跹": 6759,
      "跺": 6760,
      "跻": 6761,
      "跼": 6762,
      "踀": 6763,
      "踅": 6764,
      "踉": 6765,
      "踊": 6766,
      "踌": 6767,
      "踏": 6768,
      "踝": 6769,
      "踞": 6770,
      "踟": 6771,
      "踢": 6772,
      "踣": 6773,
      "踦": 6774,
      "踩": 6775,
      "踪": 6776,
      "踮": 6777,
      "踯": 6778,
      "踱": 6779,
      "踵": 6780,
      "踶": 6781,
      "踹": 6782,
      "踺": 6783,
      "踽": 6784,
      "蹁": 6785,
      "蹂": 6786,
      "蹄": 6787,
      "蹇": 6788,
      "蹈": 6789,
      "蹉": 6790,
      "蹊": 6791,
      "蹋": 6792,
      "蹑": 6793,
      "蹒": 6794,
      "蹓": 6795,
      "蹙": 6796,
      "蹚": 6797,
      "蹦": 6798,
      "蹩": 6799,
      "蹬": 6800,
      "蹭": 6801,
      "蹰": 6802,
      "蹲": 6803,
      "蹴": 6804,
      "蹶": 6805,
      "蹻": 6806,
      "蹼": 6807,
      "蹾": 6808,
      "蹿": 6809,
      "躁": 6810,
      "躅": 6811,
      "躇": 6812,
      "躏": 6813,
      "躐": 6814,
      "躜": 6815,
      "身": 6816,
      "躬": 6817,
      "躯": 6818,
      "躲": 6819,
      "躺": 6820,
      "軆": 6821,
      "軽": 6822,
      "輙": 6823,
      "车": 6824,
      "轧": 6825,
      "轨": 6826,
      "轩": 6827,
      "轫": 6828,
      "转": 6829,
      "轭": 6830,
      "轮": 6831,
      "软": 6832,
      "轰": 6833,
      "轱": 6834,
      "轲": 6835,
      "轳": 6836,
      "轴": 6837,
      "轶": 6838,
      "轹": 6839,
      "轺": 6840,
      "轻": 6841,
      "轼": 6842,
      "载": 6843,
      "轾": 6844,
      "轿": 6845,
      "辀": 6846,
      "辂": 6847,
      "较": 6848,
      "辄": 6849,
      "辅": 6850,
      "辆": 6851,
      "辇": 6852,
      "辈": 6853,
      "辉": 6854,
      "辊": 6855,
      "辋": 6856,
      "辍": 6857,
      "辎": 6858,
      "辏": 6859,
      "辐": 6860,
      "辑": 6861,
      "输": 6862,
      "辔": 6863,
      "辕": 6864,
      "辖": 6865,
      "辗": 6866,
      "辘": 6867,
      "辙": 6868,
      "辚": 6869,
      "辛": 6870,
      "辜": 6871,
      "辞": 6872,
      "辟": 6873,
      "辣": 6874,
      "辨": 6875,
      "辩": 6876,
      "辫": 6877,
      "辰": 6878,
      "辱": 6879,
      "辶": 6880,
      "辷": 6881,
      "边": 6882,
      "辻": 6883,
      "辽": 6884,
      "达": 6885,
      "辿": 6886,
      "迁": 6887,
      "迂": 6888,
      "迄": 6889,
      "迅": 6890,
      "过": 6891,
      "迈": 6892,
      "迌": 6893,
      "迎": 6894,
      "运": 6895,
      "近": 6896,
      "返": 6897,
      "迖": 6898,
      "还": 6899,
      "这": 6900,
      "迚": 6901,
      "进": 6902,
      "远": 6903,
      "违": 6904,
      "连": 6905,
      "迟": 6906,
      "迠": 6907,
      "迢": 6908,
      "迤": 6909,
      "迥": 6910,
      "迦": 6911,
      "迩": 6912,
      "迪": 6913,
      "迫": 6914,
      "迭": 6915,
      "述": 6916,
      "迳": 6917,
      "迴": 6918,
      "迵": 6919,
      "迷": 6920,
      "迸": 6921,
      "迹": 6922,
      "迺": 6923,
      "迻": 6924,
      "追": 6925,
      "迾": 6926,
      "退": 6927,
      "送": 6928,
      "适": 6929,
      "逃": 6930,
      "逄": 6931,
      "逅": 6932,
      "逆": 6933,
      "选": 6934,
      "逊": 6935,
      "逍": 6936,
      "透": 6937,
      "逐": 6938,
      "逑": 6939,
      "递": 6940,
      "途": 6941,
      "逖": 6942,
      "逗": 6943,
      "通": 6944,
      "逛": 6945,
      "逝": 6946,
      "逞": 6947,
      "速": 6948,
      "造": 6949,
      "逡": 6950,
      "逢": 6951,
      "逦": 6952,
      "逮": 6953,
      "逰": 6954,
      "逵": 6955,
      "逶": 6956,
      "逸": 6957,
      "逹": 6958,
      "逺": 6959,
      "逻": 6960,
      "逼": 6961,
      "逾": 6962,
      "遀": 6963,
      "遁": 6964,
      "遂": 6965,
      "遄": 6966,
      "遇": 6967,
      "遍": 6968,
      "遏": 6969,
      "遐": 6970,
      "遑": 6971,
      "遒": 6972,
      "道": 6973,
      "遗": 6974,
      "遛": 6975,
      "遢": 6976,
      "遣": 6977,
      "遥": 6978,
      "遨": 6979,
      "遭": 6980,
      "遮": 6981,
      "遯": 6982,
      "遴": 6983,
      "遵": 6984,
      "遶": 6985,
      "遽": 6986,
      "避": 6987,
      "邀": 6988,
      "邂": 6989,
      "邃": 6990,
      "邅": 6991,
      "邈": 6992,
      "邉": 6993,
      "邋": 6994,
      "邑": 6995,
      "邓": 6996,
      "邕": 6997,
      "邗": 6998,
      "邙": 6999,
      "邛": 7000,
      "邝": 7001,
      "邠": 7002,
      "邡": 7003,
      "邢": 7004,
      "那": 7005,
      "邦": 7006,
      "邨": 7007,
      "邪": 7008,
      "邬": 7009,
      "邮": 7010,
      "邯": 7011,
      "邰": 7012,
      "邱": 7013,
      "邳": 7014,
      "邵": 7015,
      "邸": 7016,
      "邹": 7017,
      "邺": 7018,
      "邻": 7019,
      "郁": 7020,
      "郃": 7021,
      "郄": 7022,
      "郅": 7023,
      "郇": 7024,
      "郈": 7025,
      "郊": 7026,
      "郎": 7027,
      "郏": 7028,
      "郐": 7029,
      "郑": 7030,
      "郓": 7031,
      "郗": 7032,
      "郜": 7033,
      "郝": 7034,
      "郞": 7035,
      "郡": 7036,
      "郢": 7037,
      "郤": 7038,
      "郥": 7039,
      "郦": 7040,
      "郧": 7041,
      "部": 7042,
      "郫": 7043,
      "郭": 7044,
      "郯": 7045,
      "郴": 7046,
      "郸": 7047,
      "都": 7048,
      "郾": 7049,
      "郿": 7050,
      "鄂": 7051,
      "鄄": 7052,
      "鄘": 7053,
      "鄙": 7054,
      "鄜": 7055,
      "鄞": 7056,
      "鄠": 7057,
      "鄢": 7058,
      "鄩": 7059,
      "鄯": 7060,
      "鄱": 7061,
      "酃": 7062,
      "酆": 7063,
      "酉": 7064,
      "酊": 7065,
      "酋": 7066,
      "酌": 7067,
      "配": 7068,
      "酏": 7069,
      "酐": 7070,
      "酒": 7071,
      "酗": 7072,
      "酚": 7073,
      "酝": 7074,
      "酞": 7075,
      "酡": 7076,
      "酢": 7077,
      "酣": 7078,
      "酥": 7079,
      "酦": 7080,
      "酩": 7081,
      "酪": 7082,
      "酬": 7083,
      "酮": 7084,
      "酯": 7085,
      "酰": 7086,
      "酱": 7087,
      "酲": 7088,
      "酵": 7089,
      "酶": 7090,
      "酷": 7091,
      "酸": 7092,
      "酹": 7093,
      "酽": 7094,
      "酿": 7095,
      "醅": 7096,
      "醇": 7097,
      "醉": 7098,
      "醋": 7099,
      "醌": 7100,
      "醍": 7101,
      "醏": 7102,
      "醐": 7103,
      "醑": 7104,
      "醒": 7105,
      "醚": 7106,
      "醛": 7107,
      "醡": 7108,
      "醣": 7109,
      "醪": 7110,
      "醮": 7111,
      "醯": 7112,
      "醰": 7113,
      "醴": 7114,
      "醺": 7115,
      "釆": 7116,
      "采": 7117,
      "釉": 7118,
      "释": 7119,
      "里": 7120,
      "重": 7121,
      "野": 7122,
      "量": 7123,
      "金": 7124,
      "釜": 7125,
      "釥": 7126,
      "釬": 7127,
      "釮": 7128,
      "釯": 7129,
      "釴": 7130,
      "鈊": 7131,
      "鈛": 7132,
      "鈡": 7133,
      "鉄": 7134,
      "鉆": 7135,
      "鉓": 7136,
      "鉨": 7137,
      "鉰": 7138,
      "鉴": 7139,
      "銮": 7140,
      "鋆": 7141,
      "鋋": 7142,
      "鋳": 7143,
      "鋻": 7144,
      "錀": 7145,
      "錧": 7146,
      "錾": 7147,
      "鍊": 7148,
      "鍌": 7149,
      "鍜": 7150,
      "鍳": 7151,
      "鎅": 7152,
      "鎏": 7153,
      "鎓": 7154,
      "鎚": 7155,
      "鎝": 7156,
      "鎭": 7157,
      "鎯": 7158,
      "鏊": 7159,
      "鏖": 7160,
      "鏣": 7161,
      "鏻": 7162,
      "鐡": 7163,
      "鐽": 7164,
      "鑑": 7165,
      "鑛": 7166,
      "鑫": 7167,
      "钅": 7168,
      "钆": 7169,
      "钇": 7170,
      "针": 7171,
      "钉": 7172,
      "钊": 7173,
      "钋": 7174,
      "钌": 7175,
      "钍": 7176,
      "钎": 7177,
      "钏": 7178,
      "钐": 7179,
      "钒": 7180,
      "钓": 7181,
      "钕": 7182,
      "钖": 7183,
      "钗": 7184,
      "钙": 7185,
      "钚": 7186,
      "钛": 7187,
      "钜": 7188,
      "钝": 7189,
      "钞": 7190,
      "钟": 7191,
      "钠": 7192,
      "钡": 7193,
      "钢": 7194,
      "钣": 7195,
      "钤": 7196,
      "钥": 7197,
      "钦": 7198,
      "钧": 7199,
      "钨": 7200,
      "钩": 7201,
      "钪": 7202,
      "钫": 7203,
      "钬": 7204,
      "钭": 7205,
      "钮": 7206,
      "钯": 7207,
      "钰": 7208,
      "钱": 7209,
      "钲": 7210,
      "钳": 7211,
      "钴": 7212,
      "钵": 7213,
      "钶": 7214,
      "钷": 7215,
      "钸": 7216,
      "钹": 7217,
      "钺": 7218,
      "钻": 7219,
      "钼": 7220,
      "钽": 7221,
      "钾": 7222,
      "钿": 7223,
      "铀": 7224,
      "铁": 7225,
      "铂": 7226,
      "铃": 7227,
      "铄": 7228,
      "铅": 7229,
      "铆": 7230,
      "铇": 7231,
      "铈": 7232,
      "铉": 7233,
      "铊": 7234,
      "铋": 7235,
      "铌": 7236,
      "铍": 7237,
      "铎": 7238,
      "铐": 7239,
      "铑": 7240,
      "铒": 7241,
      "铔": 7242,
      "铕": 7243,
      "铖": 7244,
      "铗": 7245,
      "铙": 7246,
      "铛": 7247,
      "铜": 7248,
      "铝": 7249,
      "铟": 7250,
      "铠": 7251,
      "铡": 7252,
      "铢": 7253,
      "铣": 7254,
      "铤": 7255,
      "铥": 7256,
      "铦": 7257,
      "铧": 7258,
      "铨": 7259,
      "铩": 7260,
      "铪": 7261,
      "铬": 7262,
      "铭": 7263,
      "铮": 7264,
      "铯": 7265,
      "铰": 7266,
      "铱": 7267,
      "铲": 7268,
      "铳": 7269,
      "铵": 7270,
      "银": 7271,
      "铷": 7272,
      "铸": 7273,
      "铺": 7274,
      "铼": 7275,
      "铽": 7276,
      "链": 7277,
      "铿": 7278,
      "销": 7279,
      "锁": 7280,
      "锂": 7281,
      "锃": 7282,
      "锄": 7283,
      "锅": 7284,
      "锆": 7285,
      "锇": 7286,
      "锈": 7287,
      "锉": 7288,
      "锋": 7289,
      "锌": 7290,
      "锍": 7291,
      "锎": 7292,
      "锏": 7293,
      "锐": 7294,
      "锑": 7295,
      "锒": 7296,
      "锓": 7297,
      "锔": 7298,
      "锕": 7299,
      "锗": 7300,
      "锘": 7301,
      "错": 7302,
      "锚": 7303,
      "锛": 7304,
      "锝": 7305,
      "锞": 7306,
      "锟": 7307,
      "锠": 7308,
      "锡": 7309,
      "锢": 7310,
      "锣": 7311,
      "锤": 7312,
      "锥": 7313,
      "锦": 7314,
      "锨": 7315,
      "锪": 7316,
      "锫": 7317,
      "锬": 7318,
      "锭": 7319,
      "键": 7320,
      "锯": 7321,
      "锰": 7322,
      "锱": 7323,
      "锲": 7324,
      "锳": 7325,
      "锴": 7326,
      "锵": 7327,
      "锶": 7328,
      "锷": 7329,
      "锹": 7330,
      "锺": 7331,
      "锻": 7332,
      "锽": 7333,
      "锾": 7334,
      "锿": 7335,
      "镀": 7336,
      "镁": 7337,
      "镂": 7338,
      "镅": 7339,
      "镇": 7340,
      "镉": 7341,
      "镊": 7342,
      "镌": 7343,
      "镍": 7344,
      "镎": 7345,
      "镏": 7346,
      "镐": 7347,
      "镑": 7348,
      "镒": 7349,
      "镓": 7350,
      "镔": 7351,
      "镕": 7352,
      "镖": 7353,
      "镗": 7354,
      "镘": 7355,
      "镙": 7356,
      "镚": 7357,
      "镛": 7358,
      "镜": 7359,
      "镝": 7360,
      "镞": 7361,
      "镢": 7362,
      "镣": 7363,
      "镤": 7364,
      "镥": 7365,
      "镦": 7366,
      "镧": 7367,
      "镨": 7368,
      "镪": 7369,
      "镫": 7370,
      "镬": 7371,
      "镭": 7372,
      "镮": 7373,
      "镯": 7374,
      "镰": 7375,
      "镱": 7376,
      "镲": 7377,
      "镳": 7378,
      "镴": 7379,
      "镶": 7380,
      "长": 7381,
      "閁": 7382,
      "閒": 7383,
      "閙": 7384,
      "閤": 7385,
      "閦": 7386,
      "閳": 7387,
      "闀": 7388,
      "闆": 7389,
      "闚": 7390,
      "门": 7391,
      "闩": 7392,
      "闪": 7393,
      "闫": 7394,
      "闭": 7395,
      "问": 7396,
      "闯": 7397,
      "闰": 7398,
      "闱": 7399,
      "闲": 7400,
      "闳": 7401,
      "间": 7402,
      "闵": 7403,
      "闷": 7404,
      "闸": 7405,
      "闹": 7406,
      "闺": 7407,
      "闻": 7408,
      "闼": 7409,
      "闽": 7410,
      "闾": 7411,
      "闿": 7412,
      "阀": 7413,
      "阁": 7414,
      "阂": 7415,
      "阃": 7416,
      "阄": 7417,
      "阅": 7418,
      "阆": 7419,
      "阇": 7420,
      "阈": 7421,
      "阉": 7422,
      "阊": 7423,
      "阌": 7424,
      "阍": 7425,
      "阎": 7426,
      "阐": 7427,
      "阑": 7428,
      "阒": 7429,
      "阓": 7430,
      "阔": 7431,
      "阕": 7432,
      "阖": 7433,
      "阗": 7434,
      "阘": 7435,
      "阙": 7436,
      "阚": 7437,
      "阛": 7438,
      "阜": 7439,
      "队": 7440,
      "阡": 7441,
      "阪": 7442,
      "阮": 7443,
      "阯": 7444,
      "阰": 7445,
      "阱": 7446,
      "防": 7447,
      "阳": 7448,
      "阴": 7449,
      "阵": 7450,
      "阶": 7451,
      "阻": 7452,
      "阿": 7453,
      "陀": 7454,
      "陂": 7455,
      "附": 7456,
      "际": 7457,
      "陆": 7458,
      "陇": 7459,
      "陈": 7460,
      "陉": 7461,
      "陋": 7462,
      "陌": 7463,
      "降": 7464,
      "限": 7465,
      "陔": 7466,
      "陕": 7467,
      "陛": 7468,
      "陜": 7469,
      "陟": 7470,
      "陡": 7471,
      "院": 7472,
      "除": 7473,
      "陨": 7474,
      "险": 7475,
      "陪": 7476,
      "陬": 7477,
      "陲": 7478,
      "陵": 7479,
      "陶": 7480,
      "陷": 7481,
      "隃": 7482,
      "隅": 7483,
      "隆": 7484,
      "隈": 7485,
      "隋": 7486,
      "隍": 7487,
      "随": 7488,
      "隐": 7489,
      "隔": 7490,
      "隘": 7491,
      "隙": 7492,
      "障": 7493,
      "隞": 7494,
      "隠": 7495,
      "隧": 7496,
      "隳": 7497,
      "隶": 7498,
      "隹": 7499,
      "隼": 7500,
      "隽": 7501,
      "难": 7502,
      "雀": 7503,
      "雁": 7504,
      "雃": 7505,
      "雄": 7506,
      "雅": 7507,
      "集": 7508,
      "雇": 7509,
      "雉": 7510,
      "雌": 7511,
      "雍": 7512,
      "雎": 7513,
      "雏": 7514,
      "雒": 7515,
      "雕": 7516,
      "雚": 7517,
      "雠": 7518,
      "雦": 7519,
      "雨": 7520,
      "雩": 7521,
      "雪": 7522,
      "雯": 7523,
      "雳": 7524,
      "零": 7525,
      "雷": 7526,
      "雹": 7527,
      "雾": 7528,
      "需": 7529,
      "霁": 7530,
      "霄": 7531,
      "霆": 7532,
      "震": 7533,
      "霈": 7534,
      "霉": 7535,
      "霍": 7536,
      "霎": 7537,
      "霏": 7538,
      "霓": 7539,
      "霖": 7540,
      "霜": 7541,
      "霞": 7542,
      "霭": 7543,
      "霰": 7544,
      "露": 7545,
      "霸": 7546,
      "霹": 7547,
      "霾": 7548,
      "靑": 7549,
      "青": 7550,
      "靓": 7551,
      "靖": 7552,
      "静": 7553,
      "靛": 7554,
      "非": 7555,
      "靠": 7556,
      "靡": 7557,
      "面": 7558,
      "靥": 7559,
      "革": 7560,
      "靭": 7561,
      "靳": 7562,
      "靴": 7563,
      "靶": 7564,
      "靼": 7565,
      "鞅": 7566,
      "鞋": 7567,
      "鞍": 7568,
      "鞑": 7569,
      "鞘": 7570,
      "鞠": 7571,
      "鞣": 7572,
      "鞥": 7573,
      "鞧": 7574,
      "鞭": 7575,
      "鞳": 7576,
      "鞴": 7577,
      "韐": 7578,
      "韡": 7579,
      "韦": 7580,
      "韧": 7581,
      "韩": 7582,
      "韪": 7583,
      "韫": 7584,
      "韬": 7585,
      "韭": 7586,
      "音": 7587,
      "韵": 7588,
      "韶": 7589,
      "韺": 7590,
      "頔": 7591,
      "頠": 7592,
      "頫": 7593,
      "顗": 7594,
      "页": 7595,
      "顶": 7596,
      "顷": 7597,
      "顸": 7598,
      "项": 7599,
      "顺": 7600,
      "须": 7601,
      "顼": 7602,
      "顽": 7603,
      "顾": 7604,
      "顿": 7605,
      "颀": 7606,
      "颁": 7607,
      "颂": 7608,
      "颃": 7609,
      "预": 7610,
      "颅": 7611,
      "领": 7612,
      "颇": 7613,
      "颈": 7614,
      "颉": 7615,
      "颊": 7616,
      "颌": 7617,
      "颍": 7618,
      "颏": 7619,
      "颐": 7620,
      "频": 7621,
      "颓": 7622,
      "颔": 7623,
      "颖": 7624,
      "颗": 7625,
      "题": 7626,
      "颙": 7627,
      "颚": 7628,
      "颛": 7629,
      "颜": 7630,
      "额": 7631,
      "颞": 7632,
      "颟": 7633,
      "颠": 7634,
      "颡": 7635,
      "颢": 7636,
      "颤": 7637,
      "颦": 7638,
      "颧": 7639,
      "颿": 7640,
      "飁": 7641,
      "飂": 7642,
      "风": 7643,
      "飏": 7644,
      "飑": 7645,
      "飒": 7646,
      "飓": 7647,
      "飔": 7648,
      "飕": 7649,
      "飘": 7650,
      "飙": 7651,
      "飚": 7652,
      "飞": 7653,
      "食": 7654,
      "飧": 7655,
      "飨": 7656,
      "飮": 7657,
      "餍": 7658,
      "餐": 7659,
      "餠": 7660,
      "餤": 7661,
      "餧": 7662,
      "餮": 7663,
      "餰": 7664,
      "餽": 7665,
      "饐": 7666,
      "饕": 7667,
      "饣": 7668,
      "饥": 7669,
      "饨": 7670,
      "饪": 7671,
      "饫": 7672,
      "饬": 7673,
      "饭": 7674,
      "饮": 7675,
      "饯": 7676,
      "饰": 7677,
      "饱": 7678,
      "饲": 7679,
      "饴": 7680,
      "饵": 7681,
      "饶": 7682,
      "饷": 7683,
      "饺": 7684,
      "饼": 7685,
      "饽": 7686,
      "饿": 7687,
      "馀": 7688,
      "馁": 7689,
      "馃": 7690,
      "馄": 7691,
      "馅": 7692,
      "馆": 7693,
      "馈": 7694,
      "馊": 7695,
      "馋": 7696,
      "馍": 7697,
      "馏": 7698,
      "馐": 7699,
      "馑": 7700,
      "馒": 7701,
      "馔": 7702,
      "馕": 7703,
      "首": 7704,
      "馗": 7705,
      "香": 7706,
      "馥": 7707,
      "馨": 7708,
      "馼": 7709,
      "馿": 7710,
      "駨": 7711,
      "騪": 7712,
      "马": 7713,
      "驭": 7714,
      "驮": 7715,
      "驯": 7716,
      "驰": 7717,
      "驱": 7718,
      "驳": 7719,
      "驴": 7720,
      "驶": 7721,
      "驷": 7722,
      "驸": 7723,
      "驹": 7724,
      "驻": 7725,
      "驼": 7726,
      "驽": 7727,
      "驾": 7728,
      "驿": 7729,
      "骀": 7730,
      "骁": 7731,
      "骂": 7732,
      "骃": 7733,
      "骄": 7734,
      "骅": 7735,
      "骆": 7736,
      "骇": 7737,
      "骈": 7738,
      "骉": 7739,
      "骊": 7740,
      "骋": 7741,
      "验": 7742,
      "骏": 7743,
      "骐": 7744,
      "骑": 7745,
      "骓": 7746,
      "骖": 7747,
      "骗": 7748,
      "骘": 7749,
      "骙": 7750,
      "骚": 7751,
      "骛": 7752,
      "骜": 7753,
      "骝": 7754,
      "骞": 7755,
      "骟": 7756,
      "骠": 7757,
      "骡": 7758,
      "骢": 7759,
      "骤": 7760,
      "骥": 7761,
      "骧": 7762,
      "骨": 7763,
      "骰": 7764,
      "骶": 7765,
      "骷": 7766,
      "骸": 7767,
      "骹": 7768,
      "骺": 7769,
      "骼": 7770,
      "髀": 7771,
      "髁": 7772,
      "髂": 7773,
      "髃": 7774,
      "髄": 7775,
      "髅": 7776,
      "髋": 7777,
      "髌": 7778,
      "髎": 7779,
      "髑": 7780,
      "髓": 7781,
      "高": 7782,
      "髙": 7783,
      "髡": 7784,
      "髣": 7785,
      "髦": 7786,
      "髧": 7787,
      "髪": 7788,
      "髫": 7789,
      "髭": 7790,
      "髯": 7791,
      "髹": 7792,
      "髻": 7793,
      "鬃": 7794,
      "鬅": 7795,
      "鬈": 7796,
      "鬓": 7797,
      "鬘": 7798,
      "鬟": 7799,
      "鬣": 7800,
      "鬪": 7801,
      "鬯": 7802,
      "鬲": 7803,
      "鬻": 7804,
      "鬼": 7805,
      "魁": 7806,
      "魂": 7807,
      "魄": 7808,
      "魅": 7809,
      "魆": 7810,
      "魇": 7811,
      "魈": 7812,
      "魉": 7813,
      "魏": 7814,
      "魑": 7815,
      "魔": 7816,
      "魜": 7817,
      "魟": 7818,
      "魠": 7819,
      "魦": 7820,
      "魼": 7821,
      "魽": 7822,
      "鮟": 7823,
      "鮠": 7824,
      "鮩": 7825,
      "鮰": 7826,
      "鯈": 7827,
      "鯥": 7828,
      "鰕": 7829,
      "鰦": 7830,
      "鱀": 7831,
      "鱆": 7832,
      "鱇": 7833,
      "鱫": 7834,
      "鱼": 7835,
      "鱿": 7836,
      "鲀": 7837,
      "鲁": 7838,
      "鲂": 7839,
      "鲃": 7840,
      "鲅": 7841,
      "鲆": 7842,
      "鲇": 7843,
      "鲈": 7844,
      "鲉": 7845,
      "鲋": 7846,
      "鲍": 7847,
      "鲎": 7848,
      "鲐": 7849,
      "鲑": 7850,
      "鲔": 7851,
      "鲕": 7852,
      "鲗": 7853,
      "鲘": 7854,
      "鲛": 7855,
      "鲜": 7856,
      "鲞": 7857,
      "鲟": 7858,
      "鲠": 7859,
      "鲡": 7860,
      "鲢": 7861,
      "鲣": 7862,
      "鲤": 7863,
      "鲥": 7864,
      "鲦": 7865,
      "鲧": 7866,
      "鲨": 7867,
      "鲩": 7868,
      "鲫": 7869,
      "鲬": 7870,
      "鲭": 7871,
      "鲮": 7872,
      "鲯": 7873,
      "鲱": 7874,
      "鲲": 7875,
      "鲳": 7876,
      "鲴": 7877,
      "鲵": 7878,
      "鲶": 7879,
      "鲷": 7880,
      "鲸": 7881,
      "鲹": 7882,
      "鲻": 7883,
      "鲼": 7884,
      "鲽": 7885,
      "鳀": 7886,
      "鳁": 7887,
      "鳃": 7888,
      "鳄": 7889,
      "鳅": 7890,
      "鳇": 7891,
      "鳉": 7892,
      "鳊": 7893,
      "鳋": 7894,
      "鳌": 7895,
      "鳍": 7896,
      "鳎": 7897,
      "鳏": 7898,
      "鳐": 7899,
      "鳔": 7900,
      "鳕": 7901,
      "鳖": 7902,
      "鳗": 7903,
      "鳙": 7904,
      "鳚": 7905,
      "鳜": 7906,
      "鳝": 7907,
      "鳞": 7908,
      "鳟": 7909,
      "鳡": 7910,
      "鳢": 7911,
      "鳣": 7912,
      "鳦": 7913,
      "鳽": 7914,
      "鴭": 7915,
      "鴷": 7916,
      "鵎": 7917,
      "鵙": 7918,
      "鵼": 7919,
      "鶪": 7920,
      "鶵": 7921,
      "鶷": 7922,
      "鷧": 7923,
      "鸀": 7924,
      "鸊": 7925,
      "鸟": 7926,
      "鸠": 7927,
      "鸡": 7928,
      "鸢": 7929,
      "鸣": 7930,
      "鸤": 7931,
      "鸥": 7932,
      "鸦": 7933,
      "鸨": 7934,
      "鸩": 7935,
      "鸪": 7936,
      "鸫": 7937,
      "鸬": 7938,
      "鸭": 7939,
      "鸮": 7940,
      "鸯": 7941,
      "鸰": 7942,
      "鸱": 7943,
      "鸲": 7944,
      "鸳": 7945,
      "鸴": 7946,
      "鸵": 7947,
      "鸶": 7948,
      "鸷": 7949,
      "鸸": 7950,
      "鸹": 7951,
      "鸺": 7952,
      "鸻": 7953,
      "鸽": 7954,
      "鸾": 7955,
      "鸿": 7956,
      "鹀": 7957,
      "鹂": 7958,
      "鹃": 7959,
      "鹄": 7960,
      "鹅": 7961,
      "鹆": 7962,
      "鹇": 7963,
      "鹈": 7964,
      "鹉": 7965,
      "鹊": 7966,
      "鹋": 7967,
      "鹌": 7968,
      "鹎": 7969,
      "鹏": 7970,
      "鹑": 7971,
      "鹕": 7972,
      "鹖": 7973,
      "鹗": 7974,
      "鹘": 7975,
      "鹚": 7976,
      "鹜": 7977,
      "鹞": 7978,
      "鹟": 7979,
      "鹣": 7980,
      "鹤": 7981,
      "鹦": 7982,
      "鹧": 7983,
      "鹩": 7984,
      "鹪": 7985,
      "鹫": 7986,
      "鹬": 7987,
      "鹭": 7988,
      "鹮": 7989,
      "鹰": 7990,
      "鹱": 7991,
      "鹳": 7992,
      "鹿": 7993,
      "麀": 7994,
      "麂": 7995,
      "麇": 7996,
      "麋": 7997,
      "麒": 7998,
      "麓": 7999,
      "麝": 8000,
      "麟": 8001,
      "麦": 8002,
      "麯": 8003,
      "麳": 8004,
      "麴": 8005,
      "麸": 8006,
      "麻": 8007,
      "麽": 8008,
      "麾": 8009,
      "黄": 8010,
      "黉": 8011,
      "黍": 8012,
      "黎": 8013,
      "黏": 8014,
      "黑": 8015,
      "黒": 8016,
      "黔": 8017,
      "默": 8018,
      "黙": 8019,
      "黛": 8020,
      "黜": 8021,
      "黝": 8022,
      "黠": 8023,
      "黢": 8024,
      "黥": 8025,
      "黦": 8026,
      "黧": 8027,
      "黩": 8028,
      "黪": 8029,
      "黯": 8030,
      "黱": 8031,
      "黴": 8032,
      "黹": 8033,
      "黻": 8034,
      "黼": 8035,
      "黾": 8036,
      "鼋": 8037,
      "鼎": 8038,
      "鼐": 8039,
      "鼓": 8040,
      "鼔": 8041,
      "鼗": 8042,
      "鼙": 8043,
      "鼠": 8044,
      "鼢": 8045,
      "鼣": 8046,
      "鼩": 8047,
      "鼬": 8048,
      "鼯": 8049,
      "鼱": 8050,
      "鼷": 8051,
      "鼹": 8052,
      "鼻": 8053,
      "鼾": 8054,
      "齁": 8055,
      "齐": 8056,
      "齑": 8057,
      "齣": 8058,
      "齧": 8059,
      "齿": 8060,
      "龃": 8061,
      "龄": 8062,
      "龅": 8063,
      "龇": 8064,
      "龈": 8065,
      "龉": 8066,
      "龊": 8067,
      "龋": 8068,
      "龌": 8069,
      "龘": 8070,
      "龙": 8071,
      "龚": 8072,
      "龛": 8073,
      "龟": 8074,
      "龢": 8075,
      "ꂽ": 8076,
      "ꇉ": 8077,
      "ꋥ": 8078,
      "ꔺ": 8079,
      "ꖦ": 8080,
      "ꗔ": 8081,
      "ꢜ": 8082,
      "ꦈ": 8083,
      "ꦭ": 8084,
      "ꪛ": 8085,
      "": 8086,
      "更": 8087,
      "車": 8088,
      "滑": 8089,
      "串": 8090,
      "句": 8091,
      "金": 8092,
      "奈": 8093,
      "羅": 8094,
      "邏": 8095,
      "樂": 8096,
      "落": 8097,
      "欄": 8098,
      "蘭": 8099,
      "藍": 8100,
      "拉": 8101,
      "臘": 8102,
      "朗": 8103,
      "浪": 8104,
      "來": 8105,
      "勞": 8106,
      "老": 8107,
      "路": 8108,
      "露": 8109,
      "綠": 8110,
      "錄": 8111,
      "鹿": 8112,
      "論": 8113,
      "弄": 8114,
      "籠": 8115,
      "雷": 8116,
      "樓": 8117,
      "漏": 8118,
      "累": 8119,
      "讀": 8120,
      "諾": 8121,
      "丹": 8122,
      "率": 8123,
      "異": 8124,
      "北": 8125,
      "便": 8126,
      "復": 8127,
      "不": 8128,
      "數": 8129,
      "索": 8130,
      "參": 8131,
      "塞": 8132,
      "省": 8133,
      "葉": 8134,
      "說": 8135,
      "若": 8136,
      "略": 8137,
      "兩": 8138,
      "良": 8139,
      "量": 8140,
      "勵": 8141,
      "女": 8142,
      "旅": 8143,
      "麗": 8144,
      "黎": 8145,
      "力": 8146,
      "曆": 8147,
      "歷": 8148,
      "年": 8149,
      "練": 8150,
      "聯": 8151,
      "連": 8152,
      "鍊": 8153,
      "列": 8154,
      "烈": 8155,
      "裂": 8156,
      "廉": 8157,
      "念": 8158,
      "令": 8159,
      "零": 8160,
      "靈": 8161,
      "領": 8162,
      "例": 8163,
      "禮": 8164,
      "惡": 8165,
      "了": 8166,
      "尿": 8167,
      "料": 8168,
      "療": 8169,
      "龍": 8170,
      "流": 8171,
      "留": 8172,
      "類": 8173,
      "六": 8174,
      "陸": 8175,
      "倫": 8176,
      "輪": 8177,
      "律": 8178,
      "利": 8179,
      "易": 8180,
      "李": 8181,
      "梨": 8182,
      "理": 8183,
      "裡": 8184,
      "里": 8185,
      "離": 8186,
      "林": 8187,
      "淋": 8188,
      "臨": 8189,
      "立": 8190,
      "粒": 8191,
      "狀": 8192,
      "識": 8193,
      "什": 8194,
      "刺": 8195,
      "切": 8196,
      "度": 8197,
      "拓": 8198,
      "糖": 8199,
      "宅": 8200,
      "暴": 8201,
      "輻": 8202,
      "行": 8203,
      "降": 8204,
      "見": 8205,
      "廓": 8206,
      "兀": 8207,
      "益": 8208,
      "神": 8209,
      "福": 8210,
      "精": 8211,
      "﨟": 8212,
      "都": 8213,
      "飯": 8214,
      "館": 8215,
      "鶴": 8216,
      "摒": 8217,
      "ﭪ": 8218,
      "︰": 8219,
      "﹐": 8220,
      "﹑": 8221,
      "﹒": 8222,
      "﹔": 8223,
      "﹕": 8224,
      "﹖": 8225,
      "﹗": 8226,
      "﹝": 8227,
      "﹞": 8228,
      "﹠": 8229,
      "ﺫ": 8230,
      "！": 8231,
      "＂": 8232,
      "＃": 8233,
      "＄": 8234,
      "％": 8235,
      "＇": 8236,
      "（": 8237,
      "）": 8238,
      "＊": 8239,
      "，": 8240,
      "－": 8241,
      "．": 8242,
      "／": 8243,
      "０": 8244,
      "１": 8245,
      "２": 8246,
      "３": 8247,
      "４": 8248,
      "５": 8249,
      "６": 8250,
      "８": 8251,
      "９": 8252,
      "：": 8253,
      "；": 8254,
      "＜": 8255,
      "＝": 8256,
      "＞": 8257,
      "？": 8258,
      "＠": 8259,
      "Ａ": 8260,
      "Ｃ": 8261,
      "Ｄ": 8262,
      "Ｈ": 8263,
      "Ｋ": 8264,
      "Ｍ": 8265,
      "Ｏ": 8266,
      "Ｐ": 8267,
      "［": 8268,
      "］": 8269,
      "＿": 8270,
      "｀": 8271,
      "ａ": 8272,
      "ｄ": 8273,
      "ｋ": 8274,
      "ｌ": 8275,
      "ｍ": 8276,
      "ｎ": 8277,
      "ｏ": 8278,
      "ｐ": 8279,
      "ｒ": 8280,
      "ｓ": 8281,
      "ｘ": 8282,
      "ｙ": 8283,
      "ｚ": 8284,
      "｛": 8285,
      "｜": 8286,
      "｝": 8287,
      "～": 8288,
      "｡": 8289,
      "｢": 8290,
      "｣": 8291,
      "､": 8292,
      "￡": 8293,
      "￣": 8294,
      "￥": 8295,
      "�": 8296,
      "e ": 8297,
      " t": 8298,
      "in": 8299,
      "s ": 8300,
      "an": 8301,
      " th": 8302,
      "er": 8303,
      "d ": 8304,
      "on": 8305,
      "t ": 8306,
      "en": 8307,
      " the ": 8308,
      "or": 8309,
      "ti": 8310,
      ", ": 8311,
      "al": 8312,
      "y ": 8313,
      "ar": 8314,
      "re": 8315,
      "of": 8316,
      "ing": 8317,
      "ou": 8318,
      "th": 8319,
      "o ": 8320,
      "st": 8321,
      "and ": 8322,
      "at": 8323,
      "of ": 8324,
      "es": 8325,
      "ed ": 8326,
      "a ": 8327,
      "ro": 8328,
      "ing ": 8329,
      "tion": 8330,
      "ic": 8331,
      "is ": 8332,
      "el": 8333,
      "it": 8334,
      "er ": 8335,
      "ac": 8336,
      "ec": 8337,
      "om": 8338,
      " to ": 8339,
      "as": 8340,
      "il": 8341,
      "is": 8342,
      "in ": 8343,
      "ed": 8344,
      "al ": 8345,
      "es ": 8346,
      "for": 8347,
      "Th": 8348,
      "ol": 8349,
      "ha": 8350,
      "ation": 8351,
      "em": 8352,
      "ur": 8353,
      "ch": 8354,
      "an ": 8355,
      "pl": 8356,
      "ow": 8357,
      "us": 8358,
      "ve ": 8359,
      "ent": 8360,
      "ig": 8361,
      "l ": 8362,
      "at ": 8363,
      "et": 8364,
      "am": 8365,
      "im": 8366,
      "id": 8367,
      " s": 8368,
      "pro": 8369,
      "as ": 8370,
      "The ": 8371,
      "ad": 8372,
      "ir": 8373,
      " c": 8374,
      "ul": 8375,
      "ith": 8376,
      " w": 8377,
      "un": 8378,
      "ent ": 8379,
      "ag": 8380,
      "ab": 8381,
      "os": 8382,
      "ev": 8383,
      "and": 8384,
      "res": 8385,
      "ex": 8386,
      "on ": 8387,
      "ap": 8388,
      "ly ": 8389,
      "e th": 8390,
      "you": 8391,
      "op": 8392,
      "en ": 8393,
      "di": 8394,
      "e.": 8395,
      "ear": 8396,
      "of the ": 8397,
      "s.": 8398,
      "wh": 8399,
      "con": 8400,
      "ri": 8401,
      " m": 8402,
      "li": 8403,
      "uc": 8404,
      "with": 8405,
      "int": 8406,
      "are ": 8407,
      "com": 8408,
      "e, ": 8409,
      "ver": 8410,
      "tic": 8411,
      "ation ": 8412,
      "sh": 8413,
      "od": 8414,
      "um": 8415,
      "ay": 8416,
      "igh": 8417,
      "le ": 8418,
      "lo": 8419,
      "per": 8420,
      " that ": 8421,
      "k ": 8422,
      ". ": 8423,
      "s, ": 8424,
      "qu": 8425,
      "si": 8426,
      "in the ": 8427,
      "for ": 8428,
      "be ": 8429,
      "it ": 8430,
      "or ": 8431,
      "'s ": 8432,
      "oun": 8433,
      "be": 8434,
      "一个": 8435,
      "ere ": 8436,
      "n ": 8437,
      "ut": 8438,
      "ce ": 8439,
      " to": 8440,
      "le": 8441,
      "ak": 8442,
      "no": 8443,
      "str": 8444,
      "h ": 8445,
      "ff": 8446,
      "rom": 8447,
      "su": 8448,
      "ne": 8449,
      "00": 8450,
      "our": 8451,
      ", the ": 8452,
      "ect": 8453,
      "ang": 8454,
      " the": 8455,
      "ep": 8456,
      "e the ": 8457,
      "sp": 8458,
      "tion ": 8459,
      "ra": 8460,
      "all": 8461,
      "cl": 8462,
      "我们": 8463,
      "from": 8464,
      "ter": 8465,
      "s of ": 8466,
      "have ": 8467,
      "e t": 8468,
      "ity ": 8469,
      "by ": 8470,
      "wor": 8471,
      "ld ": 8472,
      "e of ": 8473,
      " and ": 8474,
      "with ": 8475,
      "bu": 8476,
      "ong": 8477,
      "gr": 8478,
      "ay ": 8479,
      "oc": 8480,
      "par": 8481,
      "Ch": 8482,
      "oth": 8483,
      "y.": 8484,
      "up": 8485,
      "ud": 8486,
      "ot": 8487,
      "s and ": 8488,
      "was ": 8489,
      "est": 8490,
      "se": 8491,
      "pr": 8492,
      "duc": 8493,
      "ate ": 8494,
      "if": 8495,
      "y, ": 8496,
      " d": 8497,
      "form": 8498,
      "ould ": 8499,
      "ill ": 8500,
      " this ": 8501,
      "has ": 8502,
      "go": 8503,
      "bl": 8504,
      "rec": 8505,
      "eth": 8506,
      "por": 8507,
      "one ": 8508,
      "ain": 8509,
      "all ": 8510,
      "og": 8511,
      "他们": 8512,
      "he ": 8513,
      "ers ": 8514,
      "ant": 8515,
      "not ": 8516,
      "ind": 8517,
      "可以": 8518,
      "out ": 8519,
      "end": 8520,
      "so ": 8521,
      "es.": 8522,
      "ic ": 8523,
      "pe": 8524,
      "tive ": 8525,
      "oug": 8526,
      "ed to ": 8527,
      "od ": 8528,
      "ment ": 8529,
      "I ": 8530,
      "In": 8531,
      "fl": 8532,
      "we": 8533,
      "ess": 8534,
      "iz": 8535,
      " tr": 8536,
      "ure ": 8537,
      "研究": 8538,
      "ing the ": 8539,
      "cont": 8540,
      "on the ": 8541,
      "w ": 8542,
      "et ": 8543,
      "ch ": 8544,
      "dis": 8545,
      "and the ": 8546,
      "ed.": 8547,
      "de": 8548,
      ": ": 8549,
      "his ": 8550,
      "ph": 8551,
      " to the ": 8552,
      "evel": 8553,
      "act": 8554,
      "vi": 8555,
      "ome ": 8556,
      "mor": 8557,
      "ell": 8558,
      "anc": 8559,
      "enc": 8560,
      "pres": 8561,
      "out": 8562,
      "进行": 8563,
      ", and ": 8564,
      "at the ": 8565,
      "yst": 8566,
      "sa": 8567,
      "Chin": 8568,
      "man": 8569,
      "now": 8570,
      "from ": 8571,
      "ally ": 8572,
      "ach": 8573,
      "your": 8574,
      "ist": 8575,
      "ure": 8576,
      "ip": 8577,
      " of ": 8578,
      "pos": 8579,
      "ter ": 8580,
      "ated ": 8581,
      "can ": 8582,
      "he": 8583,
      "ob": 8584,
      "its ": 8585,
      "est ": 8586,
      "ult": 8587,
      "you ": 8588,
      "whic": 8589,
      "eas": 8590,
      "ical ": 8591,
      "der": 8592,
      "es, ": 8593,
      "ment": 8594,
      "year": 8595,
      "cre": 8596,
      "ese ": 8597,
      "ast": 8598,
      "able ": 8599,
      "br": 8600,
      "tr": 8601,
      "fe": 8602,
      "ir ": 8603,
      "ystem": 8604,
      "方法": 8605,
      "ign": 8606,
      "will ": 8607,
      "ine ": 8608,
      "ess ": 8609,
      "tiv": 8610,
      "e to ": 8611,
      "id ": 8612,
      "pre": 8613,
      "po": 8614,
      "were ": 8615,
      "t of ": 8616,
      "ple ": 8617,
      "ever": 8618,
      "s to ": 8619,
      "ill": 8620,
      "but ": 8621,
      "，这": 8622,
      "co": 8623,
      "ack": 8624,
      "ard": 8625,
      "av": 8626,
      "ough": 8627,
      "fi": 8628,
      "inter": 8629,
      "tim": 8630,
      "high": 8631,
      "ok": 8632,
      "ence ": 8633,
      "ech": 8634,
      "age ": 8635,
      "bas": 8636,
      "中国": 8637,
      "bo": 8638,
      "port": 8639,
      "，但": 8640,
      "ant ": 8641,
      "ance ": 8642,
      "lik": 8643,
      "ser": 8644,
      "This ": 8645,
      "sc": 8646,
      "ight ": 8647,
      "eff": 8648,
      "19": 8649,
      "ight": 8650,
      "y the ": 8651,
      "also ": 8652,
      "ial ": 8653,
      "200": 8654,
      "ath": 8655,
      "e-": 8656,
      "ass": 8657,
      "系统": 8658,
      "ous ": 8659,
      "ed the ": 8660,
      " they ": 8661,
      "没有": 8662,
      "other ": 8663,
      "gi": 8664,
      "fir": 8665,
      "off": 8666,
      "ust ": 8667,
      "we ": 8668,
      "evelop": 8669,
      "olog": 8670,
      "aus": 8671,
      "acc": 8672,
      " with": 8673,
      "des": 8674,
      "公司": 8675,
      "e and ": 8676,
      "rel": 8677,
      "，并": 8678,
      "bec": 8679,
      "ost ": 8680,
      "af": 8681,
      "ov": 8682,
      "It ": 8683,
      " is ": 8684,
      "low": 8685,
      "prov": 8686,
      "comp": 8687,
      "produc": 8688,
      "问题": 8689,
      "ake ": 8690,
      "eng": 8691,
      "An": 8692,
      "peo": 8693,
      "for the ": 8694,
      "fin": 8695,
      "ary ": 8696,
      "ish": 8697,
      "arg": 8698,
      "ain ": 8699,
      "ut ": 8700,
      " tim": 8701,
      "使用": 8702,
      "ound": 8703,
      "ey ": 8704,
      "一种": 8705,
      "的。": 8706,
      "a s": 8707,
      "可能": 8708,
      "分析": 8709,
      "ous": 8710,
      "au": 8711,
      "mar": 8712,
      "es of ": 8713,
      "diff": 8714,
      "，我": 8715,
      "ad ": 8716,
      "bet": 8717,
      "ents ": 8718,
      "enti": 8719,
      "develop": 8720,
      "这个": 8721,
      "ing.": 8722,
      "sel": 8723,
      "er.": 8724,
      "ed by ": 8725,
      "st ": 8726,
      "had ": 8727,
      "th ": 8728,
      "，在": 8729,
      "ail": 8730,
      "gre": 8731,
      "your ": 8732,
      "自己": 8733,
      "ord": 8734,
      "any ": 8735,
      "struc": 8736,
      "20": 8737,
      "ef": 8738,
      "min": 8739,
      "over": 8740,
      "s the ": 8741,
      " con": 8742,
      "ast ": 8743,
      "如果": 8744,
      "work": 8745,
      "ar ": 8746,
      "美国": 8747,
      "to ": 8748,
      "stud": 8749,
      "通过": 8750,
      "\" ": 8751,
      "工作": 8752,
      "ely ": 8753,
      "inv": 8754,
      "which ": 8755,
      "mon": 8756,
      "了。": 8757,
      "aly": 8758,
      "10": 8759,
      "dr": 8760,
      " their ": 8761,
      "system": 8762,
      "ame ": 8763,
      "中的": 8764,
      "ed in ": 8765,
      "pol": 8766,
      "econ": 8767,
      "ing to ": 8768,
      "ener": 8769,
      "car": 8770,
      "i ": 8771,
      "aw": 8772,
      "how": 8773,
      "mod": 8774,
      "ing, ": 8775,
      "ust": 8776,
      "el ": 8777,
      "Wh": 8778,
      "A ": 8779,
      "us ": 8780,
      "ice ": 8781,
      "m ": 8782,
      "know": 8783,
      "inc": 8784,
      "er, ": 8785,
      "more ": 8786,
      "been ": 8787,
      "ide ": 8788,
      "St": 8789,
      "ans": 8790,
      "tic ": 8791,
      "'t ": 8792,
      "es and ": 8793,
      "old ": 8794,
      "my ": 8795,
      "proc": 8796,
      "fr": 8797,
      "这些": 8798,
      "me": 8799,
      " was ": 8800,
      " wh": 8801,
      "wo ": 8802,
      "ion": 8803,
      "jec": 8804,
      "is the ": 8805,
      "s in ": 8806,
      "ation of ": 8807,
      "，而": 8808,
      "echn": 8809,
      "our ": 8810,
      "s are ": 8811,
      "ory ": 8812,
      "who ": 8813,
      "pap": 8814,
      " them": 8815,
      "技术": 8816,
      "In ": 8817,
      "fac": 8818,
      "ite ": 8819,
      "ound ": 8820,
      "hat ": 8821,
      "do": 8822,
      "sion": 8823,
      " can ": 8824,
      "es the ": 8825,
      "is a ": 8826,
      "own": 8827,
      "影响": 8828,
      "art": 8829,
      "analy": 8830,
      "y to ": 8831,
      "ong ": 8832,
      "ens": 8833,
      "因为": 8834,
      "已经": 8835,
      "appl": 8836,
      "about ": 8837,
      "row": 8838,
      "loc": 8839,
      "的人": 8840,
      "ell ": 8841,
      "itt": 8842,
      "时，": 8843,
      "att": 8844,
      "发展": 8845,
      "her ": 8846,
      "pa": 8847,
      "需要": 8848,
      "ll ": 8849,
      "o the ": 8850,
      "ari": 8851,
      "一些": 8852,
      "- ": 8853,
      "differ": 8854,
      "设计": 8855,
      ", th": 8856,
      "from the ": 8857,
      "应用": 8858,
      "some ": 8859,
      "中，": 8860,
      "mo": 8861,
      "说，": 8862,
      "col": 8863,
      "abl": 8864,
      "结果": 8865,
      "mer": 8866,
      "ose ": 8867,
      "f ": 8868,
      "提供": 8869,
      "yp": 8870,
      "iti": 8871,
      "时间": 8872,
      "chang": 8873,
      "lin": 8874,
      "他的": 8875,
      "wat": 8876,
      "meth": 8877,
      " com": 8878,
      "ement ": 8879,
      "ation.": 8880,
      "new": 8881,
      "way": 8882,
      "sur": 8883,
      "ating ": 8884,
      "To ": 8885,
      "very ": 8886,
      "ard ": 8887,
      "gl": 8888,
      "以及": 8889,
      "ed, ": 8890,
      "spec": 8891,
      "most ": 8892,
      "val": 8893,
      "主要": 8894,
      " in ": 8895,
      "people ": 8896,
      "hel": 8897,
      "fun": 8898,
      "ount": 8899,
      "with the ": 8900,
      "a.": 8901,
      "into ": 8902,
      "as the ": 8903,
      "mat": 8904,
      "only ": 8905,
      "hap": 8906,
      "。 ": 8907,
      "什么": 8908,
      "him": 8909,
      "sti": 8910,
      "no ": 8911,
      "dec": 8912,
      "He ": 8913,
      "ile ": 8914,
      "like ": 8915,
      "就是": 8916,
      "现在": 8917,
      "ree ": 8918,
      "fact": 8919,
      "不同": 8920,
      "ug": 8921,
      "ade ": 8922,
      "ew": 8923,
      "new ": 8924,
      "iv": 8925,
      "comm": 8926,
      "ld": 8927,
      "show": 8928,
      "ly": 8929,
      "We ": 8930,
      ") ": 8931,
      "by the ": 8932,
      "eg": 8933,
      "ick": 8934,
      "目的": 8935,
      "so": 8936,
      "lif": 8937,
      "the ": 8938,
      "clud": 8939,
      "世界": 8940,
      "serv": 8941,
      "ational ": 8942,
      " that the ": 8943,
      "数据": 8944,
      "ing and ": 8945,
      "abil": 8946,
      "betwe": 8947,
      "的，": 8948,
      "ies ": 8949,
      "所有": 8950,
      "under": 8951,
      "rem": 8952,
      "的一": 8953,
      "cr": 8954,
      "后，": 8955,
      "a, ": 8956,
      "本文": 8957,
      "具有": 8958,
      " with ": 8959,
      "部分": 8960,
      "cor": 8961,
      "yn": 8962,
      "en the ": 8963,
      "cho": 8964,
      "Un": 8965,
      "sion ": 8966,
      "but": 8967,
      "tion of ": 8968,
      "ial": 8969,
      "经济": 8970,
      "exper": 8971,
      "sol": 8972,
      "ber ": 8973,
      "国家": 8974,
      "cur": 8975,
      "dat": 8976,
      "ative ": 8977,
      "oper": 8978,
      " techn": 8979,
      "ble ": 8980,
      "sid": 8981,
      "end ": 8982,
      "p ": 8983,
      "requ": 8984,
      "det": 8985,
      "ement": 8986,
      "ion ": 8987,
      "ann": 8988,
      "cent": 8989,
      "ey": 8990,
      "你的": 8991,
      "ric": 8992,
      "effec": 8993,
      " that": 8994,
      "ack ": 8995,
      "0 ": 8996,
      "first ": 8997,
      "read": 8998,
      "struct": 8999,
      "You": 9000,
      "old": 9001,
      "y of ": 9002,
      "ub": 9003,
      "ase ": 9004,
      " te": 9005,
      "出了": 9006,
      "char": 9007,
      "would ": 9008,
      "控制": 9009,
      "day": 9010,
      "pow": 9011,
      "urn": 9012,
      "up ": 9013,
      "ship": 9014,
      "ts ": 9015,
      "服务": 9016,
      "just ": 9017,
      "plac": 9018,
      "认为": 9019,
      "y and ": 9020,
      "开始": 9021,
      "mark": 9022,
      "Sh": 9023,
      "重要": 9024,
      "ough ": 9025,
      "a l": 9026,
      "ext": 9027,
      "vis": 9028,
      "includ": 9029,
      "fer": 9030,
      "ful": 9031,
      "contro": 9032,
      "时候": 9033,
      "ach ": 9034,
      "mak": 9035,
      "son": 9036,
      "said": 9037,
      "cer": 9038,
      "Con": 9039,
      "e that ": 9040,
      "vers": 9041,
      "sub": 9042,
      "med": 9043,
      "结构": 9044,
      "ma": 9045,
      "becaus": 9046,
      "作为": 9047,
      "ue ": 9048,
      "ual ": 9049,
      "s that ": 9050,
      "do ": 9051,
      "其他": 9052,
      "ition": 9053,
      "作用": 9054,
      "，他": 9055,
      " thr": 9056,
      "Ob": 9057,
      "blem": 9058,
      "ret": 9059,
      "大的": 9060,
      "compl": 9061,
      "——": 9062,
      "sup": 9063,
      "ity of ": 9064,
      "resp": 9065,
      "发现": 9066,
      "app": 9067,
      "based ": 9068,
      "ink": 9069,
      "after ": 9070,
      "过程": 9071,
      "Chinese ": 9072,
      "own ": 9073,
      "fu": 9074,
      " sh": 9075,
      "her": 9076,
      " two ": 9077,
      "Al": 9078,
      "On": 9079,
      "tical ": 9080,
      "a b": 9081,
      "fo": 9082,
      "problem": 9083,
      "’s ": 9084,
      "such ": 9085,
      "ber": 9086,
      "equ": 9087,
      "are": 9088,
      "which": 9089,
      "resear": 9090,
      "采用": 9091,
      "ire": 9092,
      "oft": 9093,
      "gener": 9094,
      "ok ": 9095,
      "But ": 9096,
      "这种": 9097,
      "ris": 9098,
      "ific": 9099,
      "管理": 9100,
      "result": 9101,
      "ven": 9102,
      "gu": 9103,
      "buil": 9104,
      " will ": 9105,
      "ations ": 9106,
      "air": 9107,
      "， ": 9108,
      "say": 9109,
      "re ": 9110,
      "exp": 9111,
      "am ": 9112,
      "bel": 9113,
      "ation, ": 9114,
      "applic": 9115,
      "人的": 9116,
      "paper ": 9117,
      "--": 9118,
      "es to ": 9119,
      "acter": 9120,
      "sm": 9121,
      "方面": 9122,
      "good ": 9123,
      "成为": 9124,
      "vir": 9125,
      "stand": 9126,
      "ever ": 9127,
      "包括": 9128,
      "hy": 9129,
      "上，": 9130,
      "ing a ": 9131,
      "e. ": 9132,
      "我的": 9133,
      "ros": 9134,
      "ank": 9135,
      "ors ": 9136,
      "sim": 9137,
      "到了": 9138,
      "上的": 9139,
      "产品": 9140,
      "play": 9141,
      "ia ": 9142,
      "if ": 9143,
      "und": 9144,
      "mis": 9145,
      "num": 9146,
      "，我们": 9147,
      "when ": 9148,
      "econom": 9149,
      "知道": 9150,
      "incre": 9151,
      "ign ": 9152,
      "cri": 9153,
      "prot": 9154,
      "many ": 9155,
      "tion.": 9156,
      "elect": 9157,
      "情况": 9158,
      "关系": 9159,
      "um ": 9160,
      "ide": 9161,
      "ural ": 9162,
      "not": 9163,
      "should ": 9164,
      "处理": 9165,
      "生活": 9166,
      "fil": 9167,
      "bus": 9168,
      "政府": 9169,
      "grou": 9170,
      "direc": 9171,
      "生产": 9172,
      "市场": 9173,
      "arm": 9174,
      "好的": 9175,
      "ubl": 9176,
      "进行了": 9177,
      "som": 9178,
      "make ": 9179,
      "dist": 9180,
      "reg": 9181,
      "riv": 9182,
      "exam": 9183,
      "cap": 9184,
      "back": 9185,
      "ici": 9186,
      "import": 9187,
      "发生": 9188,
      "hear": 9189,
      "ism": 9190,
      "，是": 9191,
      "get ": 9192,
      "ste": 9193,
      "may ": 9194,
      "fam": 9195,
      "ort": 9196,
      "disc": 9197,
      "dep": 9198,
      "roduc": 9199,
      "社会": 9200,
      "12": 9201,
      "这样": 9202,
      "org": 9203,
      "对于": 9204,
      "En": 9205,
      "could ": 9206,
      "信息": 9207,
      "，你": 9208,
      "ings ": 9209,
      "es in ": 9210,
      "15": 9211,
      "组织": 9212,
      "different ": 9213,
      "或者": 9214,
      "what ": 9215,
      "介绍": 9216,
      "模型": 9217,
      " sa": 9218,
      " there ": 9219,
      "reat": 9220,
      "chil": 9221,
      "利用": 9222,
      ").": 9223,
      "ject": 9224,
      "leg": 9225,
      "s. ": 9226,
      "oy": 9227,
      "wr": 9228,
      "ek": 9229,
      "ere": 9230,
      "analys": 9231,
      "stat": 9232,
      "hand": 9233,
      "ax": 9234,
      "存在": 9235,
      "level": 9236,
      "befor": 9237,
      "ind ": 9238,
      "anti": 9239,
      "China ": 9240,
      "ll": 9241,
      "used ": 9242,
      "illi": 9243,
      "hum": 9244,
      "a t": 9245,
      "ore ": 9246,
      "can be ": 9247,
      "sign": 9248,
      "计算": 9249,
      "是一个": 9250,
      "non": 9251,
      "qual": 9252,
      "ett": 9253,
      "ity.": 9254,
      "work ": 9255,
      "：“": 9256,
      "erv": 9257,
      "非常": 9258,
      "企业": 9259,
      "ow ": 9260,
      "lear": 9261,
      "，以": 9262,
      "ash": 9263,
      "And ": 9264,
      "dition": 9265,
      "ation and ": 9266,
      "func": 9267,
      "这一": 9268,
      "expl": 9269,
      "ed and ": 9270,
      "能够": 9271,
      "细胞": 9272,
      "它们": 9273,
      "vari": 9274,
      "add": 9275,
      "vern": 9276,
      "it is ": 9277,
      "a m": 9278,
      "rain": 9279,
      "新的": 9280,
      " trans": 9281,
      "flu": 9282,
      "，不": 9283,
      "人们": 9284,
      "ang ": 9285,
      "治疗": 9286,
      " these ": 9287,
      "er and ": 9288,
      "sk": 9289,
      "govern": 9290,
      "表明": 9291,
      "use ": 9292,
      "，也": 9293,
      "fol": 9294,
      "11": 9295,
      "character": 9296,
      " than ": 9297,
      "任何": 9298,
      "ing of ": 9299,
      "bre": 9300,
      ", but ": 9301,
      "sec": 9302,
      "self": 9303,
      "选择": 9304,
      "，那": 9305,
      "larg": 9306,
      "lat": 9307,
      "reas": 9308,
      "ot ": 9309,
      "part": 9310,
      "Objec": 9311,
      "表示": 9312,
      "ustr": 9313,
      "o-": 9314,
      "s of the ": 9315,
      "as a ": 9316,
      "chool": 9317,
      "in a ": 9318,
      "They ": 9319,
      "sum": 9320,
      " their": 9321,
      "perform": 9322,
      "，但是": 9323,
      "必须": 9324,
      "I'": 9325,
      "present": 9326,
      "ict": 9327,
      "If ": 9328,
      "stu": 9329,
      "run": 9330,
      "long": 9331,
      "again": 9332,
      "meric": 9333,
      "adv": 9334,
      "inform": 9335,
      "cul": 9336,
      "S ": 9337,
      "大学": 9338,
      "ew ": 9339,
      "Americ": 9340,
      "mu": 9341,
      "了一": 9342,
      "fiel": 9343,
      "ful ": 9344,
      "se ": 9345,
      "基础": 9346,
      "ist ": 9347,
      "bi": 9348,
      "Com": 9349,
      "安全": 9350,
      "bod": 9351,
      "introduc": 9352,
      "design": 9353,
      "环境": 9354,
      "提高": 9355,
      "ed a ": 9356,
      "功能": 9357,
      "但是": 9358,
      "call": 9359,
      "实现": 9360,
      "aliz": 9361,
      "soc": 9362,
      "she ": 9363,
      "。”": 9364,
      "even ": 9365,
      "许多": 9366,
      "自己的": 9367,
      "aff": 9368,
      "both": 9369,
      "第一": 9370,
      "ed with ": 9371,
      "地区": 9372,
      "的是": 9373,
      "ish ": 9374,
      "day ": 9375,
      "程序": 9376,
      "look": 9377,
      "所以": 9378,
      "18": 9379,
      "and t": 9380,
      "development ": 9381,
      "out the ": 9382,
      "之间": 9383,
      "理论": 9384,
      "coun": 9385,
      "publ": 9386,
      "alk": 9387,
      "any": 9388,
      "性。": 9389,
      "method ": 9390,
      "Ar": 9391,
      "那些": 9392,
      "over ": 9393,
      "There ": 9394,
      "pec": 9395,
      "用于": 9396,
      "ans ": 9397,
      "nor": 9398,
      "由于": 9399,
      "ulti": 9400,
      "stor": 9401,
      "如何": 9402,
      "on't ": 9403,
      "探讨": 9404,
      "liv": 9405,
      "manag": 9406,
      "，对": 9407,
      " time ": 9408,
      "fri": 9409,
      "en s": 9410,
      "it.": 9411,
      "group": 9412,
      "ates ": 9413,
      "很多": 9414,
      "aut": 9415,
      "是一": 9416,
      "的时候": 9417,
      "ke": 9418,
      "prof": 9419,
      "ers.": 9420,
      "，其": 9421,
      "In the ": 9422,
      "pris": 9423,
      "2 ": 9424,
      ", a ": 9425,
      "ity": 9426,
      "grow": 9427,
      "Mr": 9428,
      "美元": 9429,
      "point": 9430,
      "ular": 9431,
      "0.": 9432,
      "rop": 9433,
      "tig": 9434,
      "ity, ": 9435,
      "ond": 9436,
      "la": 9437,
      "，因为": 9438,
      "ry ": 9439,
      "因此": 9440,
      "made ": 9441,
      "lead": 9442,
      "建立": 9443,
      "的影响": 9444,
      "起来": 9445,
      "ually ": 9446,
      "net": 9447,
      "It": 9448,
      "high ": 9449,
      "ear ": 9450,
      "s, and ": 9451,
      "pati": 9452,
      "erm": 9453,
      "产生": 9454,
      "e, the ": 9455,
      "put": 9456,
      "开发": 9457,
      "ve the ": 9458,
      "same ": 9459,
      "两个": 9460,
      "act ": 9461,
      " technolog": 9462,
      "national ": 9463,
      "person": 9464,
      "要求": 9465,
      "rad": 9466,
      "well ": 9467,
      "provid": 9468,
      "busin": 9469,
      "studi": 9470,
      "discus": 9471,
      "dur": 9472,
      "put ": 9473,
      "alth": 9474,
      "应该": 9475,
      "sl": 9476,
      "increas": 9477,
      "es are ": 9478,
      "ym": 9479,
      "world": 9480,
      "获得": 9481,
      "peopl": 9482,
      "eb": 9483,
      "iqu": 9484,
      "port ": 9485,
      "，有": 9486,
      "; ": 9487,
      "between ": 9488,
      "ning ": 9489,
      " tak": 9490,
      "为了": 9491,
      "ivers": 9492,
      "，他们": 9493,
      "之一": 9494,
      "同时": 9495,
      "u ": 9496,
      "希望": 9497,
      "Be": 9498,
      "ern ": 9499,
      "ature ": 9500,
      "istic": 9501,
      "has been ": 9502,
      "grap": 9503,
      "不能": 9504,
      "hist": 9505,
      "实验": 9506,
      "il ": 9507,
      "water ": 9508,
      "目前": 9509,
      "ate the ": 9510,
      "显示": 9511,
      "ited ": 9512,
      "met": 9513,
      "cas": 9514,
      "孩子": 9515,
      "view": 9516,
      "，它": 9517,
      "fic": 9518,
      "exc": 9519,
      "ily ": 9520,
      "As ": 9521,
      "网络": 9522,
      "学生": 9523,
      "because ": 9524,
      "支持": 9525,
      "性的": 9526,
      "不会": 9527,
      "ib": 9528,
      "ark": 9529,
      "199": 9530,
      "gen": 9531,
      "using ": 9532,
      " cont": 9533,
      "nam": 9534,
      "文化": 9535,
      "For": 9536,
      "相关": 9537,
      "然后": 9538,
      "dem": 9539,
      "' ": 9540,
      "tions ": 9541,
      "will be ": 9542,
      "help": 9543,
      "ask": 9544,
      "ed in the ": 9545,
      "red ": 9546,
      "ect ": 9547,
      "can": 9548,
      "，一": 9549,
      "有效": 9550,
      "gram": 9551,
      "-t": 9552,
      "enter": 9553,
      "meas": 9554,
      "caus": 9555,
      "order": 9556,
      "方式": 9557,
      "method": 9558,
      "活动": 9559,
      "ass ": 9560,
      "into the ": 9561,
      "正在": 9562,
      "得到": 9563,
      "Ac": 9564,
      "room": 9565,
      "变化": 9566,
      "chem": 9567,
      "ensi": 9568,
      "根据": 9569,
      "in this ": 9570,
      "organ": 9571,
      "beg": 9572,
      "on.": 9573,
      "一样": 9574,
      "科学": 9575,
      "being ": 9576,
      " to be ": 9577,
      "and th": 9578,
      "follow": 9579,
      "last ": 9580,
      "ox": 9581,
      "tis": 9582,
      "30": 9583,
      "How": 9584,
      "1 ": 9585,
      "方法。": 9586,
      "each ": 9587,
      "yl": 9588,
      "analyz": 9589,
      "still ": 9590,
      "还是": 9591,
      "pur": 9592,
      "rat": 9593,
      "）。": 9594,
      "educ": 9595,
      "运动": 9596,
      "能力": 9597,
      "ittle ": 9598,
      "都是": 9599,
      "me ": 9600,
      "计划": 9601,
      " system": 9602,
      "ther ": 9603,
      "ve": 9604,
      "happ": 9605,
      "model": 9606,
      "教育": 9607,
      "sci": 9608,
      "viron": 9609,
      "基于": 9610,
      "partic": 9611,
      "research": 9612,
      "e, and ": 9613,
      "cal": 9614,
      "国际": 9615,
      "jo": 9616,
      " typ": 9617,
      "”。": 9618,
      "我们的": 9619,
      "down": 9620,
      "dom": 9621,
      "spe": 9622,
      "ed by the ": 9623,
      " wor": 9624,
      "城市": 9625,
      "n't ": 9626,
      "pt": 9627,
      "ave ": 9628,
      "中心": 9629,
      "great ": 9630,
      "sist": 9631,
      "prac": 9632,
      "解决": 9633,
      "o, ": 9634,
      "peri": 9635,
      "1.": 9636,
      "增加": 9637,
      "e than ": 9638,
      "ian ": 9639,
      "ext ": 9640,
      "It is ": 9641,
      "lim": 9642,
      "need": 9643,
      "nec": 9644,
      "ep ": 9645,
      ". The ": 9646,
      "per ": 9647,
      "hous": 9648,
      "ace ": 9649,
      "100": 9650,
      "ature": 9651,
      "出现": 9652,
      "vol": 9653,
      "ucc": 9654,
      "of t": 9655,
      "他们的": 9656,
      "curr": 9657,
      "valu": 9658,
      "said ": 9659,
      "5 ": 9660,
      "estig": 9661,
      "e's ": 9662,
      "wom": 9663,
      "bro": 9664,
      "ern": 9665,
      "了，": 9666,
      "ix": 9667,
      "看到": 9668,
      "ult ": 9669,
      "50": 9670,
      "ince ": 9671,
      "ers": 9672,
      "del": 9673,
      "issu": 9674,
      "I w": 9675,
      "Res": 9676,
      "press": 9677,
      "ying ": 9678,
      "line ": 9679,
      "帮助": 9680,
      "ron": 9681,
      "ed that ": 9682,
      "early ": 9683,
      "such as ": 9684,
      "inu": 9685,
      "control ": 9686,
      "giv": 9687,
      "16": 9688,
      "want": 9689,
      "for m": 9690,
      "years ": 9691,
      "With": 9692,
      " through": 9693,
      "environ": 9694,
      "way ": 9695,
      "found": 9696,
      "Af": 9697,
      "big": 9698,
      "div": 9699,
      "人员": 9700,
      ", t": 9701,
      "investig": 9702,
      "start": 9703,
      "man ": 9704,
      "性能": 9705,
      "reduc": 9706,
      "ing in ": 9707,
      "ge ": 9708,
      "，从": 9709,
      "来的": 9710,
      "还有": 9711,
      "a's ": 9712,
      "pop": 9713,
      "项目": 9714,
      "appro": 9715,
      "地方": 9716,
      "data ": 9717,
      "where ": 9718,
      "after": 9719,
      "build": 9720,
      "目标": 9721,
      "effect": 9722,
      "als ": 9723,
      "flow": 9724,
      "ets ": 9725,
      " those ": 9726,
      "C ": 9727,
      "hom": 9728,
      "artic": 9729,
      "see ": 9730,
      "impl": 9731,
      "non-": 9732,
      "ways ": 9733,
      "来，": 9734,
      "tion and ": 9735,
      "process": 9736,
      "ment.": 9737,
      "3 ": 9738,
      " to t": 9739,
      "g ": 9740,
      "land": 9741,
      "ity and ": 9742,
      "ink ": 9743,
      "cour": 9744,
      "every ": 9745,
      "Pro": 9746,
      "int ": 9747,
      "sit": 9748,
      "hol": 9749,
      "是在": 9750,
      "echan": 9751,
      "number ": 9752,
      "one of the ": 9753,
      " were ": 9754,
      "P ": 9755,
      "gh": 9756,
      "for a ": 9757,
      "y t": 9758,
      "less ": 9759,
      "offic": 9760,
      "clus": 9761,
      "比较": 9762,
      "az": 9763,
      "生物": 9764,
      "ital ": 9765,
      "bin": 9766,
      "吗？": 9767,
      "问题。": 9768,
      "投资": 9769,
      "年的": 9770,
      "用户": 9771,
      "量的": 9772,
      "right": 9773,
      "study ": 9774,
      "Fr": 9775,
      "ty ": 9776,
      "auth": 9777,
      "mem": 9778,
      "well": 9779,
      "喜欢": 9780,
      "proper": 9781,
      "hal": 9782,
      "提出了": 9783,
      "other": 9784,
      "friend": 9785,
      "es that ": 9786,
      "原因": 9787,
      "every": 9788,
      "，就": 9789,
      "er of ": 9790,
      " meth": 9791,
      "experi": 9792,
      "art ": 9793,
      "ft ": 9794,
      "y-": 9795,
      "now ": 9796,
      "en, ": 9797,
      "ently ": 9798,
      "ept": 9799,
      "time ": 9800,
      "nes": 9801,
      "文件": 9802,
      "for s": 9803,
      "条件": 9804,
      "ourc": 9805,
      "ency ": 9806,
      "更多": 9807,
      "”的": 9808,
      "行为": 9809,
      "测试": 9810,
      "传统": 9811,
      "历史": 9812,
      "important ": 9813,
      "ock": 9814,
      "childr": 9815,
      "下，": 9816,
      "有关": 9817,
      "report": 9818,
      "Li": 9819,
      "效果": 9820,
      "war": 9821,
      "tion, ": 9822,
      "face ": 9823,
      "ly, ": 9824,
      "基本": 9825,
      "cult": 9826,
      "定的": 9827,
      "介绍了": 9828,
      "4 ": 9829,
      "Ex": 9830,
      "ale ": 9831,
      "plan": 9832,
      "形成": 9833,
      "ys": 9834,
      "regi": 9835,
      "empl": 9836,
      "ott": 9837,
      "标准": 9838,
      "clos": 9839,
      "graph": 9840,
      "在一": 9841,
      "ermin": 9842,
      "保护": 9843,
      "ori": 9844,
      "mater": 9845,
      "have been ": 9846,
      "ustom": 9847,
      "ine": 9848,
      "第二": 9849,
      "材料": 9850,
      "emper": 9851,
      "s in the ": 9852,
      "vel": 9853,
      "价值": 9854,
      "试验": 9855,
      "relation": 9856,
      "你们": 9857,
      "模式": 9858,
      "go ": 9859,
      "设备": 9860,
      "When ": 9861,
      "工程": 9862,
      "must ": 9863,
      "iter": 9864,
      "ing t": 9865,
      "的事": 9866,
      "主义": 9867,
      "beli": 9868,
      "成功": 9869,
      "inn": 9870,
      "life ": 9871,
      " S": 9872,
      "结论": 9873,
      "学习": 9874,
      " three ": 9875,
      "点。": 9876,
      "direct": 9877,
      "ore": 9878,
      "book": 9879,
      "o.": 9880,
      "posi": 9881,
      "all the ": 9882,
      " them ": 9883,
      "a c": 9884,
      "require": 9885,
      "main ": 9886,
      "实际": 9887,
      "来自": 9888,
      "come ": 9889,
      "istr": 9890,
      "accord": 9891,
      "tain": 9892,
      "program": 9893,
      "iet": 9894,
      "pat": 9895,
      "exampl": 9896,
      "She ": 9897,
      "ular ": 9898,
      "'re ": 9899,
      "inst": 9900,
      "有一": 9901,
      "stit": 9902,
      "ativ": 9903,
      "s were ": 9904,
      "blo": 9905,
      "英国": 9906,
      "had": 9907,
      "一直": 9908,
      "患者": 9909,
      "反应": 9910,
      "Engl": 9911,
      "提出": 9912,
      "这是": 9913,
      "energ": 9914,
      "possi": 9915,
      "did ": 9916,
      "before ": 9917,
      "al.": 9918,
      "secon": 9919,
      " we ": 9920,
      "cent ": 9921,
      "en.": 9922,
      "it's ": 9923,
      "因素": 9924,
      "ich": 9925,
      "，而且": 9926,
      "coll": 9927,
      "bor": 9928,
      "head": 9929,
      "ould": 9930,
      "countr": 9931,
      "influ": 9932,
      "side ": 9933,
      "朋友": 9934,
      "respon": 9935,
      "grad": 9936,
      "or s": 9937,
      "最后": 9938,
      "And": 9939,
      "她的": 9940,
      "back ": 9941,
      "tern": 9942,
      "power ": 9943,
      "te": 9944,
      "the": 9945,
      "2.": 9946,
      "commun": 9947,
      "空间": 9948,
      "ological ": 9949,
      "imag": 9950,
      "L ": 9951,
      "s, the ": 9952,
      "ering ": 9953,
      "调查": 9954,
      "t.": 9955,
      "rang": 9956,
      "电子": 9957,
      "ise ": 9958,
      "的一个": 9959,
      "内容": 9960,
      "ben": 9961,
      "ers, ": 9962,
      "的研究": 9963,
      " trad": 9964,
      "analysis ": 9965,
      ", which ": 9966,
      "set ": 9967,
      "kind ": 9968,
      "multi": 9969,
      "establ": 9970,
      "always ": 9971,
      "是否": 9972,
      "ject ": 9973,
      "表现": 9974,
      "的大": 9975,
      "For ": 9976,
      "you can ": 9977,
      "17": 9978,
      "质量": 9979,
      "ho": 9980,
      "资源": 9981,
      "ought ": 9982,
      "improv": 9983,
      "industr": 9984,
      "” ": 9985,
      "world ": 9986,
      "意义": 9987,
      "school": 9988,
      "之前": 9989,
      "关于": 9990,
      "def": 9991,
      "讨论": 9992,
      "ia": 9993,
      "ential ": 9994,
      "inf": 9995,
      "东西": 9996,
      "Objective ": 9997,
      "atic": 9998,
      "gg": 9999,
      "dev": 10000,
      "angu": 10001,
      "resid": 10002,
      "个人": 10003,
      "说：“": 10004,
      "ing to the ": 10005,
      "princ": 10006,
      "appear": 10007,
      "idd": 10008,
      "op ": 10009,
      "ush": 10010,
      ", they ": 10011,
      "first": 10012,
      "human ": 10013,
      "上。": 10014,
      "descri": 10015,
      "able to ": 10016,
      " think": 10017,
      "red": 10018,
      "experim": 10019,
      "水平": 10020,
      "s t": 10021,
      "light": 10022,
      "of this ": 10023,
      "used to ": 10024,
      " teach": 10025,
      "los": 10026,
      "艺术": 10027,
      "results ": 10028,
      "err": 10029,
      "各种": 10030,
      "银行": 10031,
      "effici": 10032,
      "14": 10033,
      "open": 10034,
      "dra": 10035,
      "告诉": 10036,
      "ures": 10037,
      "part ": 10038,
      "度的": 10039,
      "on, ": 10040,
      "ent.": 10041,
      "ered ": 10042,
      "never ": 10043,
      "characteristic": 10044,
      " said ": 10045,
      "discuss": 10046,
      "give ": 10047,
      "strat": 10048,
      "ation of the ": 10049,
      "best ": 10050,
      "及其": 10051,
      "let": 10052,
      "divid": 10053,
      "导致": 10054,
      "law": 10055,
      "This paper ": 10056,
      "al, ": 10057,
      ", this ": 10058,
      "只有": 10059,
      "Jap": 10060,
      "forc": 10061,
      "inal ": 10062,
      "000": 10063,
      "ly.": 10064,
      "拥有": 10065,
      "nat": 10066,
      "ength": 10067,
      "outh": 10068,
      "activ": 10069,
      "完成": 10070,
      "甚至": 10071,
      "mean": 10072,
      "mov": 10073,
      "，并且": 10074,
      "hard": 10075,
      "mic": 10076,
      "sal": 10077,
      "pi": 10078,
      "简单": 10079,
      "I d": 10080,
      "become ": 10081,
      "这里": 10082,
      "hou": 10083,
      "with a ": 10084,
      "right ": 10085,
      "medi": 10086,
      "dam": 10087,
      "ution": 10088,
      "count": 10089,
      "while ": 10090,
      "ed to the ": 10091,
      "健康": 10092,
      "s for ": 10093,
      "or.": 10094,
      "is to ": 10095,
      "lob": 10096,
      "决定": 10097,
      "system ": 10098,
      "全球": 10099,
      "明显": 10100,
      "sw": 10101,
      "D ": 10102,
      " mod": 10103,
      "ether ": 10104,
      "ment of ": 10105,
      "succ": 10106,
      "Mar": 10107,
      "practic": 10108,
      "pot": 10109,
      "年，": 10110,
      "under ": 10111,
      "汽车": 10112,
      "ater": 10113,
      "design ": 10114,
      "es a ": 10115,
      "pass": 10116,
      "thing ": 10117,
      "an, ": 10118,
      "body ": 10119,
      "然而": 10120,
      "olv": 10121,
      " through ": 10122,
      "日本": 10123,
      "ure.": 10124,
      "signific": 10125,
      "工艺": 10126,
      "ques": 10127,
      "Objective To ": 10128,
      "语言": 10129,
      "fig": 10130,
      "son ": 10131,
      "e in ": 10132,
      "youn": 10133,
      "13": 10134,
      "propos": 10135,
      "comput": 10136,
      "过去": 10137,
      "job": 10138,
      "改变": 10139,
      "ge": 10140,
      "今天": 10141,
      "land ": 10142,
      "完全": 10143,
      "人。": 10144,
      "结合": 10145,
      "get": 10146,
      "New ": 10147,
      "aim": 10148,
      "cha": 10149,
      "了一个": 10150,
      "really ": 10151,
      "Re": 10152,
      "特征": 10153,
      "So ": 10154,
      ", to ": 10155,
      "another ": 10156,
      "中。": 10157,
      "% ": 10158,
      "about the ": 10159,
      "wo": 10160,
      "fur": 10161,
      "What ": 10162,
      "ence of ": 10163,
      "allow": 10164,
      "cover": 10165,
      "government ": 10166,
      "feel": 10167,
      "Gu": 10168,
      ", \"": 10169,
      "如果你": 10170,
      "proces": 10171,
      "接受": 10172,
      "，为": 10173,
      "随着": 10174,
      "bil": 10175,
      "自然": 10176,
      "mil": 10177,
      "look ": 10178,
      "centr": 10179,
      "how ": 10180,
      "fre": 10181,
      "oll": 10182,
      "construc": 10183,
      "说。": 10184,
      "ij": 10185,
      "系统的": 10186,
      "much ": 10187,
      " this": 10188,
      "通常": 10189,
      "操作": 10190,
      "love ": 10191,
      "rul": 10192,
      "ward": 10193,
      "on a ": 10194,
      "have a ": 10195,
      "比赛": 10196,
      "list": 10197,
      "health": 10198,
      "pul": 10199,
      "week": 10200,
      "found ": 10201,
      "In this ": 10202,
      "mun": 10203,
      "Inter": 10204,
      "hop": 10205,
      "我国": 10206,
      "exist": 10207,
      "cir": 10208,
      "特别": 10209,
      "e is ": 10210,
      "maj": 10211,
      "方案": 10212,
      "ci": 10213,
      "post": 10214,
      "But": 10215,
      "cat": 10216,
      "25": 10217,
      "自由": 10218,
      "的“": 10219,
      "oil": 10220,
      "process ": 10221,
      "distri": 10222,
      "a and ": 10223,
      "bar": 10224,
      "直接": 10225,
      "客户": 10226,
      "complet": 10227,
      "合作": 10228,
      "的最": 10229,
      "eve ": 10230,
      "augh": 10231,
      "ting ": 10232,
      "al t": 10233,
      "invest": 10234,
      "continu": 10235,
      "先生": 10236,
      "只是": 10237,
      "lock": 10238,
      "let ": 10239,
      "doc": 10240,
      "动物": 10241,
      "ive ": 10242,
      "检测": 10243,
      "Univers": 10244,
      "T ": 10245,
      "find ": 10246,
      "观察": 10247,
      "ress": 10248,
      "ays ": 10249,
      "both ": 10250,
      "even": 10251,
      "作用。": 10252,
      "ump": 10253,
      "pri": 10254,
      "e to the ": 10255,
      "need to ": 10256,
      "At": 10257,
      "制造": 10258,
      "US": 10259,
      "research ": 10260,
      "mechan": 10261,
      "structure ": 10262,
      "consid": 10263,
      "软件": 10264,
      "来。": 10265,
      "him ": 10266,
      "体的": 10267,
      "减少": 10268,
      "good": 10269,
      "business ": 10270,
      "compar": 10271,
      "机构": 10272,
      "sor": 10273,
      "pan": 10274,
      "cam": 10275,
      "phot": 10276,
      "e of the ": 10277,
      "ession": 10278,
      "ati": 10279,
      "on s": 10280,
      "虽然": 10281,
      "mus": 10282,
      "fut": 10283,
      "was": 10284,
      "造成": 10285,
      "了解": 10286,
      "without ": 10287,
      "rece": 10288,
      "everal ": 10289,
      "alu": 10290,
      "two ": 10291,
      "next ": 10292,
      "领域": 10293,
      "现代": 10294,
      "to": 10295,
      "down ": 10296,
      "more than ": 10297,
      "ected ": 10298,
      "，使": 10299,
      "ever, ": 10300,
      "stre": 10301,
      "field ": 10302,
      "hor": 10303,
      " than": 10304,
      "Wor": 10305,
      "whol": 10306,
      "运行": 10307,
      "kind of ": 10308,
      "价格": 10309,
      "Pr": 10310,
      "compan": 10311,
      "langu": 10312,
      "wid": 10313,
      "poli": 10314,
      "建筑": 10315,
      "是一种": 10316,
      "ware ": 10317,
      "Eu": 10318,
      "establish": 10319,
      "一步": 10320,
      "算法": 10321,
      "relationship": 10322,
      "ator": 10323,
      "foc": 10324,
      "agn": 10325,
      "Gr": 10326,
      "s a ": 10327,
      "rain ": 10328,
      "over the ": 10329,
      "，然后": 10330,
      "一次": 10331,
      "year ": 10332,
      "确定": 10333,
      "main": 10334,
      "继续": 10335,
      "long ": 10336,
      "function": 10337,
      "多数": 10338,
      "light ": 10339,
      "尽管": 10340,
      "dro": 10341,
      "e: ": 10342,
      "hav": 10343,
      "Zh": 10344,
      "fort": 10345,
      "保持": 10346,
      "Nor": 10347,
      "x ": 10348,
      "ability ": 10349,
      "market": 10350,
      "erg": 10351,
      "的影响。": 10352,
      "determin": 10353,
      "的话": 10354,
      "fore": 10355,
      "述了": 10356,
      "的新": 10357,
      "ed for ": 10358,
      "servic": 10359,
      "d.": 10360,
      "Mr. ": 10361,
      "mach": 10362,
      "形式": 10363,
      "company ": 10364,
      "indic": 10365,
      "ection ": 10366,
      "电影": 10367,
      ", there ": 10368,
      "外，": 10369,
      "pric": 10370,
      "orig": 10371,
      "结果表明": 10372,
      "har": 10373,
      "in t": 10374,
      "flo": 10375,
      "find": 10376,
      "报告": 10377,
      "组成": 10378,
      "针对": 10379,
      "人类": 10380,
      "ipl": 10381,
      "impro": 10382,
      "famil": 10383,
      "M ": 10384,
      "rip": 10385,
      "achi": 10386,
      "better ": 10387,
      "play ": 10388,
      "polic": 10389,
      "alg": 10390,
      "including ": 10391,
      "无法": 10392,
      "ource ": 10393,
      "40": 10394,
      "ready ": 10395,
      "number of ": 10396,
      "，”": 10397,
      "ee ": 10398,
      "也是": 10399,
      "学校": 10400,
      "employ": 10401,
      "ties ": 10402,
      "norm": 10403,
      "的 ": 10404,
      "ness ": 10405,
      "政治": 10406,
      "注意": 10407,
      " too ": 10408,
      "du": 10409,
      "ress ": 10410,
      "目的：": 10411,
      "extr": 10412,
      "考虑": 10413,
      "状态": 10414,
      "ure of ": 10415,
      "high-": 10416,
      "arch": 10417,
      "增长": 10418,
      "稳定": 10419,
      "iting ": 10420,
      "action": 10421,
      "8 ": 10422,
      "little ": 10423,
      "不同的": 10424,
      "evalu": 10425,
      "ak ": 10426,
      "e the": 10427,
      "saf": 10428,
      "6 ": 10429,
      "less": 10430,
      "reason": 10431,
      "ank ": 10432,
      "，可": 10433,
      "工具": 10434,
      "自动": 10435,
      "called ": 10436,
      "egr": 10437,
      "tain ": 10438,
      "are the ": 10439,
      "refer": 10440,
      "amet": 10441,
      "，当": 10442,
      "ious ": 10443,
      "思想": 10444,
      "，她": 10445,
      "American ": 10446,
      "imp": 10447,
      "patients ": 10448,
      "专业": 10449,
      "conc": 10450,
      "plant": 10451,
      "类型": 10452,
      "market ": 10453,
      "ental ": 10454,
      "ian": 10455,
      "如此": 10456,
      "关键": 10457,
      "itor": 10458,
      "been": 10459,
      "key ": 10460,
      "led": 10461,
      "great": 10462,
      "seem": 10463,
      " co": 10464,
      "进入": 10465,
      "执行": 10466,
      "降低": 10467,
      "Ad": 10468,
      "它的": 10469,
      "世纪": 10470,
      "itional ": 10471,
      "lay": 10472,
      "organiz": 10473,
      "it was ": 10474,
      "local ": 10475,
      "quality ": 10476,
      " could ": 10477,
      "t and ": 10478,
      "becom": 10479,
      "rap": 10480,
      "some": 10481,
      "er to ": 10482,
      "临床": 10483,
      "as well ": 10484,
      "的小": 10485,
      "should be ": 10486,
      "NA": 10487,
      "hold": 10488,
      "受到": 10489,
      "sing": 10490,
      "60": 10491,
      "uck": 10492,
      "ities ": 10493,
      "roc": 10494,
      "identi": 10495,
      "with s": 10496,
      "系列": 10497,
      "product": 10498,
      "He": 10499,
      "每个": 10500,
      "It's ": 10501,
      "ick ": 10502,
      "head ": 10503,
      "总统": 10504,
      "have to ": 10505,
      "If": 10506,
      "sil": 10507,
      "并不": 10508,
      "often ": 10509,
      "siz": 10510,
      "prec": 10511,
      "illion ": 10512,
      "enterpris": 10513,
      "er-": 10514,
      "age.": 10515,
      "real": 10516,
      "change ": 10517,
      "learn": 10518,
      "代表": 10519,
      "建议": 10520,
      "condition": 10521,
      "80": 10522,
      "位于": 10523,
      "around ": 10524,
      "or m": 10525,
      "These ": 10526,
      "3.": 10527,
      "音乐": 10528,
      "Jo": 10529,
      "is an ": 10530,
      "word": 10531,
      "蛋白": 10532,
      "研究了": 10533,
      "peti": 10534,
      "cop": 10535,
      "integr": 10536,
      "lab": 10537,
      "help ": 10538,
      "does ": 10539,
      "ograph": 10540,
      "下的": 10541,
      "ations.": 10542,
      "rot": 10543,
      "charg": 10544,
      "You ": 10545,
      "equip": 10546,
      "ply ": 10547,
      "area ": 10548,
      "Conclus": 10549,
      "peci": 10550,
      "整个": 10551,
      " think ": 10552,
      "建设": 10553,
      "measure": 10554,
      "said.": 10555,
      "达到": 10556,
      "ed t": 10557,
      "provide ": 10558,
      "）的": 10559,
      "基因": 10560,
      "ision": 10561,
      "教学": 10562,
      "E ": 10563,
      "将会": 10564,
      "范围": 10565,
      "文章": 10566,
      "ism ": 10567,
      "分布": 10568,
      "percent ": 10569,
      "S. ": 10570,
      "home ": 10571,
      "速度": 10572,
      "against ": 10573,
      "path": 10574,
      "力。": 10575,
      "家庭": 10576,
      "is.": 10577,
      "performance ": 10578,
      "U.": 10579,
      "urb": 10580,
      "mot": 10581,
      "神经": 10582,
      ", we ": 10583,
      "，所以": 10584,
      "diseas": 10585,
      "e to": 10586,
      "精神": 10587,
      "prim": 10588,
      "describ": 10589,
      "After ": 10590,
      "ance.": 10591,
      "fa": 10592,
      " should ": 10593,
      "子。": 10594,
      "生命": 10595,
      " can": 10596,
      "log": 10597,
      " techniqu": 10598,
      "bur": 10599,
      "fail": 10600,
      " with the ": 10601,
      "Br": 10602,
      "don": 10603,
      "order to ": 10604,
      "Web": 10605,
      "ich ": 10606,
      "有限": 10607,
      "ynam": 10608,
      "optim": 10609,
      "觉得": 10610,
      "网站": 10611,
      "面的": 10612,
      "参数": 10613,
      "，可以": 10614,
      "，以及": 10615,
      "diffic": 10616,
      "ed on the ": 10617,
      "准备": 10618,
      "重新": 10619,
      "Bas": 10620,
      "combin": 10621,
      "month": 10622,
      "超过": 10623,
      "gir": 10624,
      "here ": 10625,
      "article ": 10626,
      " take ": 10627,
      "严重": 10628,
      "histor": 10629,
      "ence.": 10630,
      " tog": 10631,
      "bab": 10632,
      "men": 10633,
      "les ": 10634,
      "： ": 10635,
      "gam": 10636,
      "Meth": 10637,
      "how to ": 10638,
      "by": 10639,
      "ology ": 10640,
      "2010": 10641,
      " tran": 10642,
      "defin": 10643,
      "表达": 10644,
      "financ": 10645,
      "工业": 10646,
      "just": 10647,
      "ai": 10648,
      "ied ": 10649,
      "hour": 10650,
      "之间的": 10651,
      "人，": 10652,
      "anim": 10653,
      "unti": 10654,
      "custom": 10655,
      "ized ": 10656,
      "不过": 10657,
      "), ": 10658,
      "uring ": 10659,
      "ft": 10660,
      "电视": 10661,
      "addition": 10662,
      "self ": 10663,
      "Tr": 10664,
      "ously ": 10665,
      "Some ": 10666,
      "itch": 10667,
      "fron": 10668,
      "等。": 10669,
      "政策": 10670,
      "里，": 10671,
      "需求": 10672,
      "between the ": 10673,
      "容易": 10674,
      "Le": 10675,
      "出的": 10676,
      "ation is ": 10677,
      "呢？": 10678,
      "报道": 10679,
      "kind": 10680,
      "glob": 10681,
      "mp": 10682,
      "Acc": 10683,
      "prepar": 10684,
      "already ": 10685,
      "interest": 10686,
      "Ph": 10687,
      " we": 10688,
      "化的": 10689,
      "mag": 10690,
      "someth": 10691,
      "业务": 10692,
      "知识": 10693,
      "form ": 10694,
      "欧洲": 10695,
      "! ": 10696,
      "区域": 10697,
      "体系": 10698,
      "ent, ": 10699,
      "That ": 10700,
      "project": 10701,
      "United ": 10702,
      "om ": 10703,
      "autom": 10704,
      "联合": 10705,
      "My ": 10706,
      "oday": 10707,
      "lov": 10708,
      "sta": 10709,
      "北京": 10710,
      "机会": 10711,
      "s: ": 10712,
      "sugg": 10713,
      "ustri": 10714,
      "高的": 10715,
      "ing that ": 10716,
      "ex ": 10717,
      "etc": 10718,
      "food ": 10719,
      "y, the ": 10720,
      "不断": 10721,
      "full ": 10722,
      "ol ": 10723,
      "特点": 10724,
      "引起": 10725,
      "step": 10726,
      "four": 10727,
      "几个": 10728,
      "effect ": 10729,
      "Beij": 10730,
      "分析了": 10731,
      "low ": 10732,
      "，这些": 10733,
      "后的": 10734,
      "广泛": 10735,
      "ins": 10736,
      "ought": 10737,
      "Go": 10738,
      "之一。": 10739,
      "\".": 10740,
      "ke ": 10741,
      "里的": 10742,
      "small ": 10743,
      "expect": 10744,
      "复杂": 10745,
      "free ": 10746,
      "Ap": 10747,
      "风险": 10748,
      "off ": 10749,
      " cl": 10750,
      "might ": 10751,
      "dou": 10752,
      "point ": 10753,
      "sam": 10754,
      "phys": 10755,
      "benef": 10756,
      "bit": 10757,
      "CO": 10758,
      "plas": 10759,
      "large ": 10760,
      "ers and ": 10761,
      "CA": 10762,
      "位置": 10763,
      "例如": 10764,
      "ept ": 10765,
      "material": 10766,
      "参加": 10767,
      "最近": 10768,
      " mon": 10769,
      "ute ": 10770,
      "position": 10771,
      "，将": 10772,
      "when": 10773,
      " sp": 10774,
      "bir": 10775,
      "ufact": 10776,
      "不要": 10777,
      "er is ": 10778,
      "pleas": 10779,
      "cod": 10780,
      "Or": 10781,
      "lip": 10782,
      "感到": 10783,
      "keep": 10784,
      "tion of the ": 10785,
      "second ": 10786,
      "s with ": 10787,
      " work": 10788,
      "的主要": 10789,
      "化学": 10790,
      "的方法": 10791,
      "of a ": 10792,
      "es in the ": 10793,
      "epar": 10794,
      "rate ": 10795,
      "措施": 10796,
      "证明": 10797,
      "es of the ": 10798,
      "consum": 10799,
      "pack": 10800,
      "感觉": 10801,
      "We": 10802,
      "syn": 10803,
      " said": 10804,
      "each": 10805,
      "cell": 10806,
      "综合": 10807,
      "ment, ": 10808,
      "an.": 10809,
      "Objectiv": 10810,
      "那个": 10811,
      "around": 10812,
      "sun": 10813,
      "based on ": 10814,
      "orith": 10815,
      "frequ": 10816,
      "advant": 10817,
      "few": 10818,
      "return": 10819,
      " car": 10820,
      "firm": 10821,
      "meet": 10822,
      "SA": 10823,
      "ward ": 10824,
      "shar": 10825,
      "An ": 10826,
      "radi": 10827,
      "7 ": 10828,
      "Cl": 10829,
      "ali": 10830,
      "经验": 10831,
      "者的": 10832,
      "力的": 10833,
      "同样": 10834,
      "植物": 10835,
      "’t ": 10836,
      "ed on ": 10837,
      "resist": 10838,
      "One ": 10839,
      "检查": 10840,
      "进一步": 10841,
      "一起": 10842,
      "spir": 10843,
      "you w": 10844,
      "就会": 10845,
      "CT": 10846,
      "with m": 10847,
      "ally, ": 10848,
      "资料": 10849,
      "clin": 10850,
      "know ": 10851,
      "bank": 10852,
      "got ": 10853,
      "network": 10854,
      "or, ": 10855,
      "ension": 10856,
      "ort ": 10857,
      "it, ": 10858,
      "ensive ": 10859,
      "state ": 10860,
      "I was ": 10861,
      "ents.": 10862,
      "所有的": 10863,
      "国内": 10864,
      "especi": 10865,
      "，即": 10866,
      "评价": 10867,
      "outh ": 10868,
      "那么": 10869,
      "数字": 10870,
      "第三": 10871,
      "更加": 10872,
      "shall ": 10873,
      " dis": 10874,
      "is, ": 10875,
      "? ": 10876,
      "英语": 10877,
      "far": 10878,
      "2009": 10879,
      "ation in ": 10880,
      "s on ": 10881,
      "ection": 10882,
      "，“": 10883,
      "algorith": 10884,
      "度。": 10885,
      "的重要": 10886,
      "chec": 10887,
      "roll": 10888,
      "sive ": 10889,
      "人民": 10890,
      "ending ": 10891,
      "class": 10892,
      "strength": 10893,
      "active ": 10894,
      "social ": 10895,
      "e they ": 10896,
      "应用程序": 10897,
      "Co": 10898,
      "-- ": 10899,
      "plat": 10900,
      "real ": 10901,
      "不可": 10902,
      "in.": 10903,
      "heav": 10904,
      "持续": 10905,
      "ove ": 10906,
      "current ": 10907,
      "necess": 10908,
      "known ": 10909,
      "ogn": 10910,
      "阶段": 10911,
      "reli": 10912,
      "about": 10913,
      "ant to ": 10914,
      "ried ": 10915,
      "management ": 10916,
      "soft": 10917,
      "ted ": 10918,
      "对象": 10919,
      "self-": 10920,
      "首先": 10921,
      "wind": 10922,
      "用的": 10923,
      "ther": 10924,
      "detail": 10925,
      "emb": 10926,
      " method ": 10927,
      "怎么": 10928,
      "销售": 10929,
      "，那么": 10930,
      "星期": 10931,
      "rele": 10932,
      "ah": 10933,
      "sens": 10934,
      "仍然": 10935,
      " may ": 10936,
      "is not ": 10937,
      "ity to ": 10938,
      "left ": 10939,
      "y's ": 10940,
      "cu": 10941,
      "性和": 10942,
      "le-": 10943,
      "place ": 10944,
      "s have ": 10945,
      "有一个": 10946,
      "strong": 10947,
      "法律": 10948,
      "，该": 10949,
      " ther": 10950,
      "ground ": 10951,
      "development of ": 10952,
      "bal": 10953,
      "age of ": 10954,
      "countri": 10955,
      "sy": 10956,
      "iel": 10957,
      "最终": 10958,
      "色的": 10959,
      "five ": 10960,
      "rais": 10961,
      "avail": 10962,
      "一位": 10963,
      "public": 10964,
      "resourc": 10965,
      "much": 10966,
      "创建": 10967,
      "I have ": 10968,
      "游戏": 10969,
      "students ": 10970,
      "ire ": 10971,
      "energy ": 10972,
      "field": 10973,
      " through the ": 10974,
      "成本": 10975,
      "paramet": 10976,
      "Method": 10977,
      "000 ": 10978,
      "kill": 10979,
      "领导": 10980,
      "away ": 10981,
      "effective ": 10982,
      "effect of ": 10983,
      "expres": 10984,
      "anag": 10985,
      "ery ": 10986,
      "auti": 10987,
      "几乎": 10988,
      "Hu": 10989,
      "表面": 10990,
      "令人": 10991,
      "不仅": 10992,
      "的发展": 10993,
      "24": 10994,
      "解释": 10995,
      "read ": 10996,
      "rav": 10997,
      "information ": 10998,
      "机制": 10999,
      " team": 11000,
      "e this ": 11001,
      "amp": 11002,
      "，让": 11003,
      "找到": 11004,
      "，如": 11005,
      "I s": 11006,
      "%。": 11007,
      "along": 11008,
      "uch ": 11009,
      "任务": 11010,
      "这样的": 11011,
      "ministr": 11012,
      "osp": 11013,
      "消费": 11014,
      "Mon": 11015,
      "going to ": 11016,
      "故事": 11017,
      "has": 11018,
      "小时": 11019,
      "创造": 11020,
      "is of ": 11021,
      "快速": 11022,
      "recent ": 11023,
      "realiz": 11024,
      "natural ": 11025,
      "ure, ": 11026,
      "PC": 11027,
      "研究。": 11028,
      "测量": 11029,
      "显著": 11030,
      "ounc": 11031,
      "电话": 11032,
      "Qu": 11033,
      "信号": 11034,
      "fath": 11035,
      "break": 11036,
      "iver": 11037,
      "事件": 11038,
      "has a ": 11039,
      "mental ": 11040,
      "not be ": 11041,
      "star": 11042,
      "present ": 11043,
      "长期": 11044,
      "氧化": 11045,
      "Dr": 11046,
      "atten": 11047,
      "提供了": 11048,
      "you are ": 11049,
      "相信": 11050,
      "havi": 11051,
      "198": 11052,
      "don't ": 11053,
      "whil": 11054,
      "pay": 11055,
      "竞争": 11056,
      "Gre": 11057,
      "rough": 11058,
      "aver": 11059,
      "whole ": 11060,
      "一定": 11061,
      "et.": 11062,
      "Accord": 11063,
      "可能会": 11064,
      "大多数": 11065,
      "night": 11066,
      "消息": 11067,
      " technology ": 11068,
      "At ": 11069,
      "various ": 11070,
      "ric ": 11071,
      "es, and ": 11072,
      "action ": 11073,
      "international ": 11074,
      "calcul": 11075,
      "一般": 11076,
      "之后": 11077,
      "定义": 11078,
      "死亡": 11079,
      "比如": 11080,
      "den": 11081,
      "取得": 11082,
      "疾病": 11083,
      "分子": 11084,
      "说明": 11085,
      "参与": 11086,
      "opp": 11087,
      "器的": 11088,
      "年轻": 11089,
      "是个": 11090,
      "连接": 11091,
      "2008": 11092,
      "经过": 11093,
      "support": 11094,
      "方向": 11095,
      "enn": 11096,
      "distribu": 11097,
      "perf": 11098,
      "有些": 11099,
      "ically ": 11100,
      "ember ": 11101,
      "的问题": 11102,
      "emperature ": 11103,
      "che": 11104,
      ", that ": 11105,
      "led ": 11106,
      "or of ": 11107,
      "situ": 11108,
      "nov": 11109,
      "micro": 11110,
      "erefor": 11111,
      "作品": 11112,
      "性，": 11113,
      "death": 11114,
      "explor": 11115,
      "的高": 11116,
      "behavi": 11117,
      "三个": 11118,
      "day.": 11119,
      "contain": 11120,
      " comp": 11121,
      "tional ": 11122,
      "making ": 11123,
      "I'm ": 11124,
      "in-": 11125,
      "several ": 11126,
      ", he ": 11127,
      "意识": 11128,
      "dig": 11129,
      "学家": 11130,
      "ed as ": 11131,
      "my": 11132,
      "包含": 11133,
      "金属": 11134,
      "Indi": 11135,
      "真正": 11136,
      "oci": 11137,
      "By ": 11138,
      "ory of ": 11139,
      "er in ": 11140,
      "agre": 11141,
      "result ": 11142,
      "记录": 11143,
      "ling ": 11144,
      "factor": 11145,
      "role ": 11146,
      "ance, ": 11147,
      "few ": 11148,
      "scienti": 11149,
      "load": 11150,
      "super": 11151,
      "bon": 11152,
      "refl": 11153,
      "quar": 11154,
      "变得": 11155,
      "es. ": 11156,
      "individ": 11157,
      "special ": 11158,
      "其它": 11159,
      ", it ": 11160,
      "you d": 11161,
      "ution ": 11162,
      "时代": 11163,
      "view ": 11164,
      "ed that the ": 11165,
      "交易": 11166,
      "ID": 11167,
      "acros": 11168,
      "wher": 11169,
      "利亚": 11170,
      "物质": 11171,
      "China's ": 11172,
      "during ": 11173,
      " test": 11174,
      "之后，": 11175,
      "ision ": 11176,
      "net ": 11177,
      "His ": 11178,
      "feature": 11179,
      "mad": 11180,
      "时期": 11181,
      "s is ": 11182,
      "努力": 11183,
      "其中": 11184,
      "vent": 11185,
      "od.": 11186,
      "after the ": 11187,
      "s to the ": 11188,
      "etting ": 11189,
      "00 ": 11190,
      "ately ": 11191,
      "oph": 11192,
      "anti-": 11193,
      "fill": 11194,
      "为什么": 11195,
      "程度": 11196,
      "cut": 11197,
      "，如果": 11198,
      "family ": 11199,
      "liz": 11200,
[...]
